/*
 * Neural VM Bundle - Generated by neural_bundler.py
 * Model: baked_quine.c4onnx (118527 bytes)
 * Source: quine_cllm.c
 * Runtime: onnx
 * Bytecode: 112 instructions
 */

/* ===== EMBEDDED NEURAL MODEL WEIGHTS ===== */

char embedded_model[] = {
    0x4f,0x4e,0x4e,0x58,0x03,0x00,0x00,0x00,0x20,0x00,0x00,0x00,0x0b,0x00,0x00,0x00,
    0x06,0x00,0x00,0x00,0x62,0x32,0x6e,0x5f,0x57,0x31,0x02,0x00,0x00,0x00,0x00,0x01,
    0x00,0x00,0x00,0x01,0x00,0x00,0x01,0x00,0x00,0x00,0x00,0x01,0x00,0x00,0x00,0x00,
    0x00,0x00,0x01,0x01,0x00,0x00,0x02,0x02,0x00,0x00,0x03,0x03,0x00,0x00,0x04,0x04,
    0x00,0x00,0x05,0x05,0x00,0x00,0x06,0x06,0x00,0x00,0x07,0x07,0x00,0x00,0x08,0x08,
    0x00,0x00,0x09,0x09,0x00,0x00,0x0a,0x0a,0x00,0x00,0x0b,0x0b,0x00,0x00,0x0c,0x0c,
    0x00,0x00,0x0d,0x0d,0x00,0x00,0x0e,0x0e,0x00,0x00,0x0f,0x0f,0x00,0x00,0x10,0x10,
    0x00,0x00,0x11,0x11,0x00,0x00,0x12,0x12,0x00,0x00,0x13,0x13,0x00,0x00,0x14,0x14,
    0x00,0x00,0x15,0x15,0x00,0x00,0x16,0x16,0x00,0x00,0x17,0x17,0x00,0x00,0x18,0x18,
    0x00,0x00,0x19,0x19,0x00,0x00,0x1a,0x1a,0x00,0x00,0x1b,0x1b,0x00,0x00,0x1c,0x1c,
    0x00,0x00,0x1d,0x1d,0x00,0x00,0x1e,0x1e,0x00,0x00,0x1f,0x1f,0x00,0x00,0x20,0x20,
    0x00,0x00,0x21,0x21,0x00,0x00,0x22,0x22,0x00,0x00,0x23,0x23,0x00,0x00,0x24,0x24,
    0x00,0x00,0x25,0x25,0x00,0x00,0x26,0x26,0x00,0x00,0x27,0x27,0x00,0x00,0x28,0x28,
    0x00,0x00,0x29,0x29,0x00,0x00,0x2a,0x2a,0x00,0x00,0x2b,0x2b,0x00,0x00,0x2c,0x2c,
    0x00,0x00,0x2d,0x2d,0x00,0x00,0x2e,0x2e,0x00,0x00,0x2f,0x2f,0x00,0x00,0x30,0x30,
    0x00,0x00,0x31,0x31,0x00,0x00,0x32,0x32,0x00,0x00,0x33,0x33,0x00,0x00,0x34,0x34,
    0x00,0x00,0x35,0x35,0x00,0x00,0x36,0x36,0x00,0x00,0x37,0x37,0x00,0x00,0x38,0x38,
    0x00,0x00,0x39,0x39,0x00,0x00,0x3a,0x3a,0x00,0x00,0x3b,0x3b,0x00,0x00,0x3c,0x3c,
    0x00,0x00,0x3d,0x3d,0x00,0x00,0x3e,0x3e,0x00,0x00,0x3f,0x3f,0x00,0x00,0x40,0x40,
    0x00,0x00,0x41,0x41,0x00,0x00,0x42,0x42,0x00,0x00,0x43,0x43,0x00,0x00,0x44,0x44,
    0x00,0x00,0x45,0x45,0x00,0x00,0x46,0x46,0x00,0x00,0x47,0x47,0x00,0x00,0x48,0x48,
    0x00,0x00,0x49,0x49,0x00,0x00,0x4a,0x4a,0x00,0x00,0x4b,0x4b,0x00,0x00,0x4c,0x4c,
    0x00,0x00,0x4d,0x4d,0x00,0x00,0x4e,0x4e,0x00,0x00,0x4f,0x4f,0x00,0x00,0x50,0x50,
    0x00,0x00,0x51,0x51,0x00,0x00,0x52,0x52,0x00,0x00,0x53,0x53,0x00,0x00,0x54,0x54,
    0x00,0x00,0x55,0x55,0x00,0x00,0x56,0x56,0x00,0x00,0x57,0x57,0x00,0x00,0x58,0x58,
    0x00,0x00,0x59,0x59,0x00,0x00,0x5a,0x5a,0x00,0x00,0x5b,0x5b,0x00,0x00,0x5c,0x5c,
    0x00,0x00,0x5d,0x5d,0x00,0x00,0x5e,0x5e,0x00,0x00,0x5f,0x5f,0x00,0x00,0x60,0x60,
    0x00,0x00,0x61,0x61,0x00,0x00,0x62,0x62,0x00,0x00,0x63,0x63,0x00,0x00,0x64,0x64,
    0x00,0x00,0x65,0x65,0x00,0x00,0x66,0x66,0x00,0x00,0x67,0x67,0x00,0x00,0x68,0x68,
    0x00,0x00,0x69,0x69,0x00,0x00,0x6a,0x6a,0x00,0x00,0x6b,0x6b,0x00,0x00,0x6c,0x6c,
    0x00,0x00,0x6d,0x6d,0x00,0x00,0x6e,0x6e,0x00,0x00,0x6f,0x6f,0x00,0x00,0x70,0x70,
    0x00,0x00,0x71,0x71,0x00,0x00,0x72,0x72,0x00,0x00,0x73,0x73,0x00,0x00,0x74,0x74,
    0x00,0x00,0x75,0x75,0x00,0x00,0x76,0x76,0x00,0x00,0x77,0x77,0x00,0x00,0x78,0x78,
    0x00,0x00,0x79,0x79,0x00,0x00,0x7a,0x7a,0x00,0x00,0x7b,0x7b,0x00,0x00,0x7c,0x7c,
    0x00,0x00,0x7d,0x7d,0x00,0x00,0x7e,0x7e,0x00,0x00,0x7f,0x7f,0x00,0x00,0x80,0x80,
    0x00,0x00,0x81,0x81,0x00,0x00,0x82,0x82,0x00,0x00,0x83,0x83,0x00,0x00,0x84,0x84,
    0x00,0x00,0x85,0x85,0x00,0x00,0x86,0x86,0x00,0x00,0x87,0x87,0x00,0x00,0x88,0x88,
    0x00,0x00,0x89,0x89,0x00,0x00,0x8a,0x8a,0x00,0x00,0x8b,0x8b,0x00,0x00,0x8c,0x8c,
    0x00,0x00,0x8d,0x8d,0x00,0x00,0x8e,0x8e,0x00,0x00,0x8f,0x8f,0x00,0x00,0x90,0x90,
    0x00,0x00,0x91,0x91,0x00,0x00,0x92,0x92,0x00,0x00,0x93,0x93,0x00,0x00,0x94,0x94,
    0x00,0x00,0x95,0x95,0x00,0x00,0x96,0x96,0x00,0x00,0x97,0x97,0x00,0x00,0x98,0x98,
    0x00,0x00,0x99,0x99,0x00,0x00,0x9a,0x9a,0x00,0x00,0x9b,0x9b,0x00,0x00,0x9c,0x9c,
    0x00,0x00,0x9d,0x9d,0x00,0x00,0x9e,0x9e,0x00,0x00,0x9f,0x9f,0x00,0x00,0xa0,0xa0,
    0x00,0x00,0xa1,0xa1,0x00,0x00,0xa2,0xa2,0x00,0x00,0xa3,0xa3,0x00,0x00,0xa4,0xa4,
    0x00,0x00,0xa5,0xa5,0x00,0x00,0xa6,0xa6,0x00,0x00,0xa7,0xa7,0x00,0x00,0xa8,0xa8,
    0x00,0x00,0xa9,0xa9,0x00,0x00,0xaa,0xaa,0x00,0x00,0xab,0xab,0x00,0x00,0xac,0xac,
    0x00,0x00,0xad,0xad,0x00,0x00,0xae,0xae,0x00,0x00,0xaf,0xaf,0x00,0x00,0xb0,0xb0,
    0x00,0x00,0xb1,0xb1,0x00,0x00,0xb2,0xb2,0x00,0x00,0xb3,0xb3,0x00,0x00,0xb4,0xb4,
    0x00,0x00,0xb5,0xb5,0x00,0x00,0xb6,0xb6,0x00,0x00,0xb7,0xb7,0x00,0x00,0xb8,0xb8,
    0x00,0x00,0xb9,0xb9,0x00,0x00,0xba,0xba,0x00,0x00,0xbb,0xbb,0x00,0x00,0xbc,0xbc,
    0x00,0x00,0xbd,0xbd,0x00,0x00,0xbe,0xbe,0x00,0x00,0xbf,0xbf,0x00,0x00,0xc0,0xc0,
    0x00,0x00,0xc1,0xc1,0x00,0x00,0xc2,0xc2,0x00,0x00,0xc3,0xc3,0x00,0x00,0xc4,0xc4,
    0x00,0x00,0xc5,0xc5,0x00,0x00,0xc6,0xc6,0x00,0x00,0xc7,0xc7,0x00,0x00,0xc8,0xc8,
    0x00,0x00,0xc9,0xc9,0x00,0x00,0xca,0xca,0x00,0x00,0xcb,0xcb,0x00,0x00,0xcc,0xcc,
    0x00,0x00,0xcd,0xcd,0x00,0x00,0xce,0xce,0x00,0x00,0xcf,0xcf,0x00,0x00,0xd0,0xd0,
    0x00,0x00,0xd1,0xd1,0x00,0x00,0xd2,0xd2,0x00,0x00,0xd3,0xd3,0x00,0x00,0xd4,0xd4,
    0x00,0x00,0xd5,0xd5,0x00,0x00,0xd6,0xd6,0x00,0x00,0xd7,0xd7,0x00,0x00,0xd8,0xd8,
    0x00,0x00,0xd9,0xd9,0x00,0x00,0xda,0xda,0x00,0x00,0xdb,0xdb,0x00,0x00,0xdc,0xdc,
    0x00,0x00,0xdd,0xdd,0x00,0x00,0xde,0xde,0x00,0x00,0xdf,0xdf,0x00,0x00,0xe0,0xe0,
    0x00,0x00,0xe1,0xe1,0x00,0x00,0xe2,0xe2,0x00,0x00,0xe3,0xe3,0x00,0x00,0xe4,0xe4,
    0x00,0x00,0xe5,0xe5,0x00,0x00,0xe6,0xe6,0x00,0x00,0xe7,0xe7,0x00,0x00,0xe8,0xe8,
    0x00,0x00,0xe9,0xe9,0x00,0x00,0xea,0xea,0x00,0x00,0xeb,0xeb,0x00,0x00,0xec,0xec,
    0x00,0x00,0xed,0xed,0x00,0x00,0xee,0xee,0x00,0x00,0xef,0xef,0x00,0x00,0xf0,0xf0,
    0x00,0x00,0xf1,0xf1,0x00,0x00,0xf2,0xf2,0x00,0x00,0xf3,0xf3,0x00,0x00,0xf4,0xf4,
    0x00,0x00,0xf5,0xf5,0x00,0x00,0xf6,0xf6,0x00,0x00,0xf7,0xf7,0x00,0x00,0xf8,0xf8,
    0x00,0x00,0xf9,0xf9,0x00,0x00,0xfa,0xfa,0x00,0x00,0xfb,0xfb,0x00,0x00,0xfc,0xfc,
    0x00,0x00,0xfd,0xfd,0x00,0x00,0xfe,0xfe,0x00,0x00,0xff,0xff,0x00,0x00,0x00,0x00,
    0x01,0x00,0x00,0x00,0x01,0x00,0x00,0x00,0x01,0x00,0x00,0x00,0x01,0x00,0x00,0x00,
    0x01,0x00,0x00,0x00,0x01,0x00,0x00,0x00,0x01,0x00,0x00,0x00,0x01,0x00,0x00,0x00,
    0x01,0x00,0x00,0x00,0x01,0x00,0x00,0x00,0x01,0x00,0x00,0x00,0x01,0x00,0x00,0x00,
    0x01,0x00,0x00,0x00,0x01,0x00,0x00,0x00,0x01,0x00,0x00,0x00,0x01,0x00,0x00,0x00,
    0x01,0x00,0x00,0x00,0x01,0x00,0x00,0x00,0x01,0x00,0x00,0x00,0x01,0x00,0x00,0x00,
    0x01,0x00,0x00,0x00,0x01,0x00,0x00,0x00,0x01,0x00,0x00,0x00,0x01,0x00,0x00,0x00,
    0x01,0x00,0x00,0x00,0x01,0x00,0x00,0x00,0x01,0x00,0x00,0x00,0x01,0x00,0x00,0x00,
    0x01,0x00,0x00,0x00,0x01,0x00,0x00,0x00,0x01,0x00,0x00,0x00,0x01,0x00,0x00,0x00,
    0x01,0x00,0x00,0x00,0x01,0x00,0x00,0x00,0x01,0x00,0x00,0x00,0x01,0x00,0x00,0x00,
    0x01,0x00,0x00,0x00,0x01,0x00,0x00,0x00,0x01,0x00,0x00,0x00,0x01,0x00,0x00,0x00,
    0x01,0x00,0x00,0x00,0x01,0x00,0x00,0x00,0x01,0x00,0x00,0x00,0x01,0x00,0x00,0x00,
    0x01,0x00,0x00,0x00,0x01,0x00,0x00,0x00,0x01,0x00,0x00,0x00,0x01,0x00,0x00,0x00,
    0x01,0x00,0x00,0x00,0x01,0x00,0x00,0x00,0x01,0x00,0x00,0x00,0x01,0x00,0x00,0x00,
    0x01,0x00,0x00,0x00,0x01,0x00,0x00,0x00,0x01,0x00,0x00,0x00,0x01,0x00,0x00,0x00,
    0x01,0x00,0x00,0x00,0x01,0x00,0x00,0x00,0x01,0x00,0x00,0x00,0x01,0x00,0x00,0x00,
    0x01,0x00,0x00,0x00,0x01,0x00,0x00,0x00,0x01,0x00,0x00,0x00,0x01,0x00,0x00,0x00,
    0x01,0x00,0x00,0x00,0x01,0x00,0x00,0x00,0x01,0x00,0x00,0x00,0x01,0x00,0x00,0x00,
    0x01,0x00,0x00,0x00,0x01,0x00,0x00,0x00,0x01,0x00,0x00,0x00,0x01,0x00,0x00,0x00,
    0x01,0x00,0x00,0x00,0x01,0x00,0x00,0x00,0x01,0x00,0x00,0x00,0x01,0x00,0x00,0x00,
    0x01,0x00,0x00,0x00,0x01,0x00,0x00,0x00,0x01,0x00,0x00,0x00,0x01,0x00,0x00,0x00,
    0x01,0x00,0x00,0x00,0x01,0x00,0x00,0x00,0x01,0x00,0x00,0x00,0x01,0x00,0x00,0x00,
    0x01,0x00,0x00,0x00,0x01,0x00,0x00,0x00,0x01,0x00,0x00,0x00,0x01,0x00,0x00,0x00,
    0x01,0x00,0x00,0x00,0x01,0x00,0x00,0x00,0x01,0x00,0x00,0x00,0x01,0x00,0x00,0x00,
    0x01,0x00,0x00,0x00,0x01,0x00,0x00,0x00,0x01,0x00,0x00,0x00,0x01,0x00,0x00,0x00,
    0x01,0x00,0x00,0x00,0x01,0x00,0x00,0x00,0x01,0x00,0x00,0x00,0x01,0x00,0x00,0x00,
    0x01,0x00,0x00,0x00,0x01,0x00,0x00,0x00,0x01,0x00,0x00,0x00,0x01,0x00,0x00,0x00,
    0x01,0x00,0x00,0x00,0x01,0x00,0x00,0x00,0x01,0x00,0x00,0x00,0x01,0x00,0x00,0x00,
    0x01,0x00,0x00,0x00,0x01,0x00,0x00,0x00,0x01,0x00,0x00,0x00,0x01,0x00,0x00,0x00,
    0x01,0x00,0x00,0x00,0x01,0x00,0x00,0x00,0x01,0x00,0x00,0x00,0x01,0x00,0x00,0x00,
    0x01,0x00,0x00,0x00,0x01,0x00,0x00,0x00,0x01,0x00,0x00,0x00,0x01,0x00,0x00,0x00,
    0x01,0x00,0x00,0x00,0x01,0x00,0x00,0x00,0x01,0x00,0x00,0x00,0x01,0x00,0x00,0x00,
    0x01,0x00,0x00,0x00,0x01,0x00,0x00,0x00,0x01,0x00,0x00,0x00,0x01,0x00,0x00,0x00,
    0x01,0x00,0x00,0x00,0x01,0x00,0x00,0x00,0x01,0x00,0x00,0x00,0x01,0x00,0x00,0x00,
    0x01,0x00,0x00,0x00,0x01,0x00,0x00,0x00,0x01,0x00,0x00,0x00,0x01,0x00,0x00,0x00,
    0x01,0x00,0x00,0x00,0x01,0x00,0x00,0x00,0x01,0x00,0x00,0x00,0x01,0x00,0x00,0x00,
    0x01,0x00,0x00,0x00,0x01,0x00,0x00,0x00,0x01,0x00,0x00,0x00,0x01,0x00,0x00,0x00,
    0x01,0x00,0x00,0x00,0x01,0x00,0x00,0x00,0x01,0x00,0x00,0x00,0x01,0x00,0x00,0x00,
    0x01,0x00,0x00,0x00,0x01,0x00,0x00,0x00,0x01,0x00,0x00,0x00,0x01,0x00,0x00,0x00,
    0x01,0x00,0x00,0x00,0x01,0x00,0x00,0x00,0x01,0x00,0x00,0x00,0x01,0x00,0x00,0x00,
    0x01,0x00,0x00,0x00,0x01,0x00,0x00,0x00,0x01,0x00,0x00,0x00,0x01,0x00,0x00,0x00,
    0x01,0x00,0x00,0x00,0x01,0x00,0x00,0x00,0x01,0x00,0x00,0x00,0x01,0x00,0x00,0x00,
    0x01,0x00,0x00,0x00,0x01,0x00,0x00,0x00,0x01,0x00,0x00,0x00,0x01,0x00,0x00,0x00,
    0x01,0x00,0x00,0x00,0x01,0x00,0x00,0x00,0x01,0x00,0x00,0x00,0x01,0x00,0x00,0x00,
    0x01,0x00,0x00,0x00,0x01,0x00,0x00,0x00,0x01,0x00,0x00,0x00,0x01,0x00,0x00,0x00,
    0x01,0x00,0x00,0x00,0x01,0x00,0x00,0x00,0x01,0x00,0x00,0x00,0x01,0x00,0x00,0x00,
    0x01,0x00,0x00,0x00,0x01,0x00,0x00,0x00,0x01,0x00,0x00,0x00,0x01,0x00,0x00,0x00,
    0x01,0x00,0x00,0x00,0x01,0x00,0x00,0x00,0x01,0x00,0x00,0x00,0x01,0x00,0x00,0x00,
    0x01,0x00,0x00,0x00,0x01,0x00,0x00,0x00,0x01,0x00,0x00,0x00,0x01,0x00,0x00,0x00,
    0x01,0x00,0x00,0x00,0x01,0x00,0x00,0x00,0x01,0x00,0x00,0x00,0x01,0x00,0x00,0x00,
    0x01,0x00,0x00,0x00,0x01,0x00,0x00,0x00,0x01,0x00,0x00,0x00,0x01,0x00,0x00,0x00,
    0x01,0x00,0x00,0x00,0x01,0x00,0x00,0x00,0x01,0x00,0x00,0x00,0x01,0x00,0x00,0x00,
    0x01,0x00,0x00,0x00,0x01,0x00,0x00,0x00,0x01,0x00,0x00,0x00,0x01,0x00,0x00,0x00,
    0x01,0x00,0x00,0x00,0x01,0x00,0x00,0x00,0x01,0x00,0x00,0x00,0x01,0x00,0x00,0x00,
    0x01,0x00,0x00,0x00,0x01,0x00,0x00,0x00,0x01,0x00,0x00,0x00,0x01,0x00,0x00,0x00,
    0x01,0x00,0x00,0x00,0x01,0x00,0x00,0x00,0x01,0x00,0x00,0x00,0x01,0x00,0x00,0x00,
    0x01,0x00,0x00,0x00,0x01,0x00,0x00,0x00,0x01,0x00,0x00,0x00,0x01,0x00,0x00,0x00,
    0x01,0x00,0x00,0x00,0x01,0x00,0x00,0x00,0x01,0x00,0x00,0x00,0x01,0x00,0x00,0x00,
    0x01,0x00,0x00,0x00,0x01,0x00,0x00,0x00,0x01,0x00,0x00,0x00,0x01,0x00,0x00,0x00,
    0x01,0x00,0x00,0x00,0x01,0x00,0x00,0x00,0x01,0x00,0x00,0x00,0x01,0x00,0x00,0x00,
    0x01,0x00,0x00,0x00,0x01,0x00,0x00,0x00,0x01,0x00,0x00,0x00,0x01,0x00,0x00,0x00,
    0x01,0x00,0x00,0x00,0x01,0x00,0x00,0x00,0x01,0x00,0x00,0x00,0x01,0x00,0x00,0x00,
    0x01,0x00,0x00,0x00,0x01,0x00,0x00,0x00,0x01,0x00,0x00,0x00,0x01,0x00,0x00,0x00,
    0x01,0x00,0x00,0x00,0x01,0x00,0x00,0x00,0x01,0x00,0x00,0x00,0x01,0x00,0x00,0x00,
    0x01,0x00,0x00,0x00,0x01,0x00,0x00,0x00,0x01,0x00,0x00,0x00,0x01,0x00,0x06,0x00,
    0x00,0x00,0x62,0x32,0x6e,0x5f,0x57,0x32,0x02,0x00,0x00,0x00,0x00,0x01,0x00,0x00,
    0x20,0x00,0x00,0x00,0x01,0x00,0x00,0x00,0x00,0x02,0x00,0x00,0x00,0x00,0x00,0x00,
    0x10,0x00,0x00,0x00,0x20,0x00,0x00,0x00,0x31,0x00,0x00,0x00,0x40,0x00,0x00,0x00,
    0x52,0x00,0x00,0x00,0x60,0x00,0x00,0x00,0x73,0x00,0x00,0x00,0x80,0x00,0x00,0x00,
    0x94,0x00,0x00,0x00,0xa0,0x00,0x00,0x00,0xb5,0x00,0x00,0x00,0xc0,0x00,0x00,0x00,
    0xd6,0x00,0x00,0x00,0xe0,0x00,0x00,0x00,0xf7,0x00,0x00,0x00,0x00,0x01,0x00,0x00,
    0x18,0x01,0x00,0x00,0x20,0x01,0x00,0x00,0x39,0x01,0x00,0x00,0x40,0x01,0x00,0x00,
    0x5a,0x01,0x00,0x00,0x60,0x01,0x00,0x00,0x7b,0x01,0x00,0x00,0x80,0x01,0x00,0x00,
    0x9c,0x01,0x00,0x00,0xa0,0x01,0x00,0x00,0xbd,0x01,0x00,0x00,0xc0,0x01,0x00,0x00,
    0xde,0x01,0x00,0x00,0xe0,0x01,0x00,0x00,0xff,0x01,0x00,0x00,0x01,0x02,0x00,0x00,
    0x10,0x02,0x00,0x00,0x21,0x02,0x00,0x00,0x31,0x02,0x00,0x00,0x41,0x02,0x00,0x00,
    0x52,0x02,0x00,0x00,0x61,0x02,0x00,0x00,0x73,0x02,0x00,0x00,0x81,0x02,0x00,0x00,
    0x94,0x02,0x00,0x00,0xa1,0x02,0x00,0x00,0xb5,0x02,0x00,0x00,0xc1,0x02,0x00,0x00,
    0xd6,0x02,0x00,0x00,0xe1,0x02,0x00,0x00,0xf7,0x02,0x00,0x00,0x01,0x03,0x00,0x00,
    0x18,0x03,0x00,0x00,0x21,0x03,0x00,0x00,0x39,0x03,0x00,0x00,0x41,0x03,0x00,0x00,
    0x5a,0x03,0x00,0x00,0x61,0x03,0x00,0x00,0x7b,0x03,0x00,0x00,0x81,0x03,0x00,0x00,
    0x9c,0x03,0x00,0x00,0xa1,0x03,0x00,0x00,0xbd,0x03,0x00,0x00,0xc1,0x03,0x00,0x00,
    0xde,0x03,0x00,0x00,0xe1,0x03,0x00,0x00,0xff,0x03,0x00,0x00,0x02,0x04,0x00,0x00,
    0x10,0x04,0x00,0x00,0x22,0x04,0x00,0x00,0x31,0x04,0x00,0x00,0x42,0x04,0x00,0x00,
    0x52,0x04,0x00,0x00,0x62,0x04,0x00,0x00,0x73,0x04,0x00,0x00,0x82,0x04,0x00,0x00,
    0x94,0x04,0x00,0x00,0xa2,0x04,0x00,0x00,0xb5,0x04,0x00,0x00,0xc2,0x04,0x00,0x00,
    0xd6,0x04,0x00,0x00,0xe2,0x04,0x00,0x00,0xf7,0x04,0x00,0x00,0x02,0x05,0x00,0x00,
    0x18,0x05,0x00,0x00,0x22,0x05,0x00,0x00,0x39,0x05,0x00,0x00,0x42,0x05,0x00,0x00,
    0x5a,0x05,0x00,0x00,0x62,0x05,0x00,0x00,0x7b,0x05,0x00,0x00,0x82,0x05,0x00,0x00,
    0x9c,0x05,0x00,0x00,0xa2,0x05,0x00,0x00,0xbd,0x05,0x00,0x00,0xc2,0x05,0x00,0x00,
    0xde,0x05,0x00,0x00,0xe2,0x05,0x00,0x00,0xff,0x05,0x00,0x00,0x03,0x06,0x00,0x00,
    0x10,0x06,0x00,0x00,0x23,0x06,0x00,0x00,0x31,0x06,0x00,0x00,0x43,0x06,0x00,0x00,
    0x52,0x06,0x00,0x00,0x63,0x06,0x00,0x00,0x73,0x06,0x00,0x00,0x83,0x06,0x00,0x00,
    0x94,0x06,0x00,0x00,0xa3,0x06,0x00,0x00,0xb5,0x06,0x00,0x00,0xc3,0x06,0x00,0x00,
    0xd6,0x06,0x00,0x00,0xe3,0x06,0x00,0x00,0xf7,0x06,0x00,0x00,0x03,0x07,0x00,0x00,
    0x18,0x07,0x00,0x00,0x23,0x07,0x00,0x00,0x39,0x07,0x00,0x00,0x43,0x07,0x00,0x00,
    0x5a,0x07,0x00,0x00,0x63,0x07,0x00,0x00,0x7b,0x07,0x00,0x00,0x83,0x07,0x00,0x00,
    0x9c,0x07,0x00,0x00,0xa3,0x07,0x00,0x00,0xbd,0x07,0x00,0x00,0xc3,0x07,0x00,0x00,
    0xde,0x07,0x00,0x00,0xe3,0x07,0x00,0x00,0xff,0x07,0x00,0x00,0x04,0x08,0x00,0x00,
    0x10,0x08,0x00,0x00,0x24,0x08,0x00,0x00,0x31,0x08,0x00,0x00,0x44,0x08,0x00,0x00,
    0x52,0x08,0x00,0x00,0x64,0x08,0x00,0x00,0x73,0x08,0x00,0x00,0x84,0x08,0x00,0x00,
    0x94,0x08,0x00,0x00,0xa4,0x08,0x00,0x00,0xb5,0x08,0x00,0x00,0xc4,0x08,0x00,0x00,
    0xd6,0x08,0x00,0x00,0xe4,0x08,0x00,0x00,0xf7,0x08,0x00,0x00,0x04,0x09,0x00,0x00,
    0x18,0x09,0x00,0x00,0x24,0x09,0x00,0x00,0x39,0x09,0x00,0x00,0x44,0x09,0x00,0x00,
    0x5a,0x09,0x00,0x00,0x64,0x09,0x00,0x00,0x7b,0x09,0x00,0x00,0x84,0x09,0x00,0x00,
    0x9c,0x09,0x00,0x00,0xa4,0x09,0x00,0x00,0xbd,0x09,0x00,0x00,0xc4,0x09,0x00,0x00,
    0xde,0x09,0x00,0x00,0xe4,0x09,0x00,0x00,0xff,0x09,0x00,0x00,0x05,0x0a,0x00,0x00,
    0x10,0x0a,0x00,0x00,0x25,0x0a,0x00,0x00,0x31,0x0a,0x00,0x00,0x45,0x0a,0x00,0x00,
    0x52,0x0a,0x00,0x00,0x65,0x0a,0x00,0x00,0x73,0x0a,0x00,0x00,0x85,0x0a,0x00,0x00,
    0x94,0x0a,0x00,0x00,0xa5,0x0a,0x00,0x00,0xb5,0x0a,0x00,0x00,0xc5,0x0a,0x00,0x00,
    0xd6,0x0a,0x00,0x00,0xe5,0x0a,0x00,0x00,0xf7,0x0a,0x00,0x00,0x05,0x0b,0x00,0x00,
    0x18,0x0b,0x00,0x00,0x25,0x0b,0x00,0x00,0x39,0x0b,0x00,0x00,0x45,0x0b,0x00,0x00,
    0x5a,0x0b,0x00,0x00,0x65,0x0b,0x00,0x00,0x7b,0x0b,0x00,0x00,0x85,0x0b,0x00,0x00,
    0x9c,0x0b,0x00,0x00,0xa5,0x0b,0x00,0x00,0xbd,0x0b,0x00,0x00,0xc5,0x0b,0x00,0x00,
    0xde,0x0b,0x00,0x00,0xe5,0x0b,0x00,0x00,0xff,0x0b,0x00,0x00,0x06,0x0c,0x00,0x00,
    0x10,0x0c,0x00,0x00,0x26,0x0c,0x00,0x00,0x31,0x0c,0x00,0x00,0x46,0x0c,0x00,0x00,
    0x52,0x0c,0x00,0x00,0x66,0x0c,0x00,0x00,0x73,0x0c,0x00,0x00,0x86,0x0c,0x00,0x00,
    0x94,0x0c,0x00,0x00,0xa6,0x0c,0x00,0x00,0xb5,0x0c,0x00,0x00,0xc6,0x0c,0x00,0x00,
    0xd6,0x0c,0x00,0x00,0xe6,0x0c,0x00,0x00,0xf7,0x0c,0x00,0x00,0x06,0x0d,0x00,0x00,
    0x18,0x0d,0x00,0x00,0x26,0x0d,0x00,0x00,0x39,0x0d,0x00,0x00,0x46,0x0d,0x00,0x00,
    0x5a,0x0d,0x00,0x00,0x66,0x0d,0x00,0x00,0x7b,0x0d,0x00,0x00,0x86,0x0d,0x00,0x00,
    0x9c,0x0d,0x00,0x00,0xa6,0x0d,0x00,0x00,0xbd,0x0d,0x00,0x00,0xc6,0x0d,0x00,0x00,
    0xde,0x0d,0x00,0x00,0xe6,0x0d,0x00,0x00,0xff,0x0d,0x00,0x00,0x07,0x0e,0x00,0x00,
    0x10,0x0e,0x00,0x00,0x27,0x0e,0x00,0x00,0x31,0x0e,0x00,0x00,0x47,0x0e,0x00,0x00,
    0x52,0x0e,0x00,0x00,0x67,0x0e,0x00,0x00,0x73,0x0e,0x00,0x00,0x87,0x0e,0x00,0x00,
    0x94,0x0e,0x00,0x00,0xa7,0x0e,0x00,0x00,0xb5,0x0e,0x00,0x00,0xc7,0x0e,0x00,0x00,
    0xd6,0x0e,0x00,0x00,0xe7,0x0e,0x00,0x00,0xf7,0x0e,0x00,0x00,0x07,0x0f,0x00,0x00,
    0x18,0x0f,0x00,0x00,0x27,0x0f,0x00,0x00,0x39,0x0f,0x00,0x00,0x47,0x0f,0x00,0x00,
    0x5a,0x0f,0x00,0x00,0x67,0x0f,0x00,0x00,0x7b,0x0f,0x00,0x00,0x87,0x0f,0x00,0x00,
    0x9c,0x0f,0x00,0x00,0xa7,0x0f,0x00,0x00,0xbd,0x0f,0x00,0x00,0xc7,0x0f,0x00,0x00,
    0xde,0x0f,0x00,0x00,0xe7,0x0f,0x00,0x00,0xff,0x0f,0x00,0x00,0x08,0x10,0x00,0x00,
    0x10,0x10,0x00,0x00,0x28,0x10,0x00,0x00,0x31,0x10,0x00,0x00,0x48,0x10,0x00,0x00,
    0x52,0x10,0x00,0x00,0x68,0x10,0x00,0x00,0x73,0x10,0x00,0x00,0x88,0x10,0x00,0x00,
    0x94,0x10,0x00,0x00,0xa8,0x10,0x00,0x00,0xb5,0x10,0x00,0x00,0xc8,0x10,0x00,0x00,
    0xd6,0x10,0x00,0x00,0xe8,0x10,0x00,0x00,0xf7,0x10,0x00,0x00,0x08,0x11,0x00,0x00,
    0x18,0x11,0x00,0x00,0x28,0x11,0x00,0x00,0x39,0x11,0x00,0x00,0x48,0x11,0x00,0x00,
    0x5a,0x11,0x00,0x00,0x68,0x11,0x00,0x00,0x7b,0x11,0x00,0x00,0x88,0x11,0x00,0x00,
    0x9c,0x11,0x00,0x00,0xa8,0x11,0x00,0x00,0xbd,0x11,0x00,0x00,0xc8,0x11,0x00,0x00,
    0xde,0x11,0x00,0x00,0xe8,0x11,0x00,0x00,0xff,0x11,0x00,0x00,0x09,0x12,0x00,0x00,
    0x10,0x12,0x00,0x00,0x29,0x12,0x00,0x00,0x31,0x12,0x00,0x00,0x49,0x12,0x00,0x00,
    0x52,0x12,0x00,0x00,0x69,0x12,0x00,0x00,0x73,0x12,0x00,0x00,0x89,0x12,0x00,0x00,
    0x94,0x12,0x00,0x00,0xa9,0x12,0x00,0x00,0xb5,0x12,0x00,0x00,0xc9,0x12,0x00,0x00,
    0xd6,0x12,0x00,0x00,0xe9,0x12,0x00,0x00,0xf7,0x12,0x00,0x00,0x09,0x13,0x00,0x00,
    0x18,0x13,0x00,0x00,0x29,0x13,0x00,0x00,0x39,0x13,0x00,0x00,0x49,0x13,0x00,0x00,
    0x5a,0x13,0x00,0x00,0x69,0x13,0x00,0x00,0x7b,0x13,0x00,0x00,0x89,0x13,0x00,0x00,
    0x9c,0x13,0x00,0x00,0xa9,0x13,0x00,0x00,0xbd,0x13,0x00,0x00,0xc9,0x13,0x00,0x00,
    0xde,0x13,0x00,0x00,0xe9,0x13,0x00,0x00,0xff,0x13,0x00,0x00,0x0a,0x14,0x00,0x00,
    0x10,0x14,0x00,0x00,0x2a,0x14,0x00,0x00,0x31,0x14,0x00,0x00,0x4a,0x14,0x00,0x00,
    0x52,0x14,0x00,0x00,0x6a,0x14,0x00,0x00,0x73,0x14,0x00,0x00,0x8a,0x14,0x00,0x00,
    0x94,0x14,0x00,0x00,0xaa,0x14,0x00,0x00,0xb5,0x14,0x00,0x00,0xca,0x14,0x00,0x00,
    0xd6,0x14,0x00,0x00,0xea,0x14,0x00,0x00,0xf7,0x14,0x00,0x00,0x0a,0x15,0x00,0x00,
    0x18,0x15,0x00,0x00,0x2a,0x15,0x00,0x00,0x39,0x15,0x00,0x00,0x4a,0x15,0x00,0x00,
    0x5a,0x15,0x00,0x00,0x6a,0x15,0x00,0x00,0x7b,0x15,0x00,0x00,0x8a,0x15,0x00,0x00,
    0x9c,0x15,0x00,0x00,0xaa,0x15,0x00,0x00,0xbd,0x15,0x00,0x00,0xca,0x15,0x00,0x00,
    0xde,0x15,0x00,0x00,0xea,0x15,0x00,0x00,0xff,0x15,0x00,0x00,0x0b,0x16,0x00,0x00,
    0x10,0x16,0x00,0x00,0x2b,0x16,0x00,0x00,0x31,0x16,0x00,0x00,0x4b,0x16,0x00,0x00,
    0x52,0x16,0x00,0x00,0x6b,0x16,0x00,0x00,0x73,0x16,0x00,0x00,0x8b,0x16,0x00,0x00,
    0x94,0x16,0x00,0x00,0xab,0x16,0x00,0x00,0xb5,0x16,0x00,0x00,0xcb,0x16,0x00,0x00,
    0xd6,0x16,0x00,0x00,0xeb,0x16,0x00,0x00,0xf7,0x16,0x00,0x00,0x0b,0x17,0x00,0x00,
    0x18,0x17,0x00,0x00,0x2b,0x17,0x00,0x00,0x39,0x17,0x00,0x00,0x4b,0x17,0x00,0x00,
    0x5a,0x17,0x00,0x00,0x6b,0x17,0x00,0x00,0x7b,0x17,0x00,0x00,0x8b,0x17,0x00,0x00,
    0x9c,0x17,0x00,0x00,0xab,0x17,0x00,0x00,0xbd,0x17,0x00,0x00,0xcb,0x17,0x00,0x00,
    0xde,0x17,0x00,0x00,0xeb,0x17,0x00,0x00,0xff,0x17,0x00,0x00,0x0c,0x18,0x00,0x00,
    0x10,0x18,0x00,0x00,0x2c,0x18,0x00,0x00,0x31,0x18,0x00,0x00,0x4c,0x18,0x00,0x00,
    0x52,0x18,0x00,0x00,0x6c,0x18,0x00,0x00,0x73,0x18,0x00,0x00,0x8c,0x18,0x00,0x00,
    0x94,0x18,0x00,0x00,0xac,0x18,0x00,0x00,0xb5,0x18,0x00,0x00,0xcc,0x18,0x00,0x00,
    0xd6,0x18,0x00,0x00,0xec,0x18,0x00,0x00,0xf7,0x18,0x00,0x00,0x0c,0x19,0x00,0x00,
    0x18,0x19,0x00,0x00,0x2c,0x19,0x00,0x00,0x39,0x19,0x00,0x00,0x4c,0x19,0x00,0x00,
    0x5a,0x19,0x00,0x00,0x6c,0x19,0x00,0x00,0x7b,0x19,0x00,0x00,0x8c,0x19,0x00,0x00,
    0x9c,0x19,0x00,0x00,0xac,0x19,0x00,0x00,0xbd,0x19,0x00,0x00,0xcc,0x19,0x00,0x00,
    0xde,0x19,0x00,0x00,0xec,0x19,0x00,0x00,0xff,0x19,0x00,0x00,0x0d,0x1a,0x00,0x00,
    0x10,0x1a,0x00,0x00,0x2d,0x1a,0x00,0x00,0x31,0x1a,0x00,0x00,0x4d,0x1a,0x00,0x00,
    0x52,0x1a,0x00,0x00,0x6d,0x1a,0x00,0x00,0x73,0x1a,0x00,0x00,0x8d,0x1a,0x00,0x00,
    0x94,0x1a,0x00,0x00,0xad,0x1a,0x00,0x00,0xb5,0x1a,0x00,0x00,0xcd,0x1a,0x00,0x00,
    0xd6,0x1a,0x00,0x00,0xed,0x1a,0x00,0x00,0xf7,0x1a,0x00,0x00,0x0d,0x1b,0x00,0x00,
    0x18,0x1b,0x00,0x00,0x2d,0x1b,0x00,0x00,0x39,0x1b,0x00,0x00,0x4d,0x1b,0x00,0x00,
    0x5a,0x1b,0x00,0x00,0x6d,0x1b,0x00,0x00,0x7b,0x1b,0x00,0x00,0x8d,0x1b,0x00,0x00,
    0x9c,0x1b,0x00,0x00,0xad,0x1b,0x00,0x00,0xbd,0x1b,0x00,0x00,0xcd,0x1b,0x00,0x00,
    0xde,0x1b,0x00,0x00,0xed,0x1b,0x00,0x00,0xff,0x1b,0x00,0x00,0x0e,0x1c,0x00,0x00,
    0x10,0x1c,0x00,0x00,0x2e,0x1c,0x00,0x00,0x31,0x1c,0x00,0x00,0x4e,0x1c,0x00,0x00,
    0x52,0x1c,0x00,0x00,0x6e,0x1c,0x00,0x00,0x73,0x1c,0x00,0x00,0x8e,0x1c,0x00,0x00,
    0x94,0x1c,0x00,0x00,0xae,0x1c,0x00,0x00,0xb5,0x1c,0x00,0x00,0xce,0x1c,0x00,0x00,
    0xd6,0x1c,0x00,0x00,0xee,0x1c,0x00,0x00,0xf7,0x1c,0x00,0x00,0x0e,0x1d,0x00,0x00,
    0x18,0x1d,0x00,0x00,0x2e,0x1d,0x00,0x00,0x39,0x1d,0x00,0x00,0x4e,0x1d,0x00,0x00,
    0x5a,0x1d,0x00,0x00,0x6e,0x1d,0x00,0x00,0x7b,0x1d,0x00,0x00,0x8e,0x1d,0x00,0x00,
    0x9c,0x1d,0x00,0x00,0xae,0x1d,0x00,0x00,0xbd,0x1d,0x00,0x00,0xce,0x1d,0x00,0x00,
    0xde,0x1d,0x00,0x00,0xee,0x1d,0x00,0x00,0xff,0x1d,0x00,0x00,0x0f,0x1e,0x00,0x00,
    0x10,0x1e,0x00,0x00,0x2f,0x1e,0x00,0x00,0x31,0x1e,0x00,0x00,0x4f,0x1e,0x00,0x00,
    0x52,0x1e,0x00,0x00,0x6f,0x1e,0x00,0x00,0x73,0x1e,0x00,0x00,0x8f,0x1e,0x00,0x00,
    0x94,0x1e,0x00,0x00,0xaf,0x1e,0x00,0x00,0xb5,0x1e,0x00,0x00,0xcf,0x1e,0x00,0x00,
    0xd6,0x1e,0x00,0x00,0xef,0x1e,0x00,0x00,0xf7,0x1e,0x00,0x00,0x0f,0x1f,0x00,0x00,
    0x18,0x1f,0x00,0x00,0x2f,0x1f,0x00,0x00,0x39,0x1f,0x00,0x00,0x4f,0x1f,0x00,0x00,
    0x5a,0x1f,0x00,0x00,0x6f,0x1f,0x00,0x00,0x7b,0x1f,0x00,0x00,0x8f,0x1f,0x00,0x00,
    0x9c,0x1f,0x00,0x00,0xaf,0x1f,0x00,0x00,0xbd,0x1f,0x00,0x00,0xcf,0x1f,0x00,0x00,
    0xde,0x1f,0x00,0x00,0xef,0x1f,0x00,0x00,0xff,0x1f,0x00,0x00,0x00,0x00,0x01,0x00,
    0x00,0x00,0x01,0x00,0x00,0x00,0x01,0x00,0x00,0x00,0x01,0x00,0x00,0x00,0x01,0x00,
    0x00,0x00,0x01,0x00,0x00,0x00,0x01,0x00,0x00,0x00,0x01,0x00,0x00,0x00,0x01,0x00,
    0x00,0x00,0x01,0x00,0x00,0x00,0x01,0x00,0x00,0x00,0x01,0x00,0x00,0x00,0x01,0x00,
    0x00,0x00,0x01,0x00,0x00,0x00,0x01,0x00,0x00,0x00,0x01,0x00,0x00,0x00,0x01,0x00,
    0x00,0x00,0x01,0x00,0x00,0x00,0x01,0x00,0x00,0x00,0x01,0x00,0x00,0x00,0x01,0x00,
    0x00,0x00,0x01,0x00,0x00,0x00,0x01,0x00,0x00,0x00,0x01,0x00,0x00,0x00,0x01,0x00,
    0x00,0x00,0x01,0x00,0x00,0x00,0x01,0x00,0x00,0x00,0x01,0x00,0x00,0x00,0x01,0x00,
    0x00,0x00,0x01,0x00,0x00,0x00,0x01,0x00,0x00,0x00,0x01,0x00,0x00,0x00,0x01,0x00,
    0x00,0x00,0x01,0x00,0x00,0x00,0x01,0x00,0x00,0x00,0x01,0x00,0x00,0x00,0x01,0x00,
    0x00,0x00,0x01,0x00,0x00,0x00,0x01,0x00,0x00,0x00,0x01,0x00,0x00,0x00,0x01,0x00,
    0x00,0x00,0x01,0x00,0x00,0x00,0x01,0x00,0x00,0x00,0x01,0x00,0x00,0x00,0x01,0x00,
    0x00,0x00,0x01,0x00,0x00,0x00,0x01,0x00,0x00,0x00,0x01,0x00,0x00,0x00,0x01,0x00,
    0x00,0x00,0x01,0x00,0x00,0x00,0x01,0x00,0x00,0x00,0x01,0x00,0x00,0x00,0x01,0x00,
    0x00,0x00,0x01,0x00,0x00,0x00,0x01,0x00,0x00,0x00,0x01,0x00,0x00,0x00,0x01,0x00,
    0x00,0x00,0x01,0x00,0x00,0x00,0x01,0x00,0x00,0x00,0x01,0x00,0x00,0x00,0x01,0x00,
    0x00,0x00,0x01,0x00,0x00,0x00,0x01,0x00,0x00,0x00,0x01,0x00,0x00,0x00,0x01,0x00,
    0x00,0x00,0x01,0x00,0x00,0x00,0x01,0x00,0x00,0x00,0x01,0x00,0x00,0x00,0x01,0x00,
    0x00,0x00,0x01,0x00,0x00,0x00,0x01,0x00,0x00,0x00,0x01,0x00,0x00,0x00,0x01,0x00,
    0x00,0x00,0x01,0x00,0x00,0x00,0x01,0x00,0x00,0x00,0x01,0x00,0x00,0x00,0x01,0x00,
    0x00,0x00,0x01,0x00,0x00,0x00,0x01,0x00,0x00,0x00,0x01,0x00,0x00,0x00,0x01,0x00,
    0x00,0x00,0x01,0x00,0x00,0x00,0x01,0x00,0x00,0x00,0x01,0x00,0x00,0x00,0x01,0x00,
    0x00,0x00,0x01,0x00,0x00,0x00,0x01,0x00,0x00,0x00,0x01,0x00,0x00,0x00,0x01,0x00,
    0x00,0x00,0x01,0x00,0x00,0x00,0x01,0x00,0x00,0x00,0x01,0x00,0x00,0x00,0x01,0x00,
    0x00,0x00,0x01,0x00,0x00,0x00,0x01,0x00,0x00,0x00,0x01,0x00,0x00,0x00,0x01,0x00,
    0x00,0x00,0x01,0x00,0x00,0x00,0x01,0x00,0x00,0x00,0x01,0x00,0x00,0x00,0x01,0x00,
    0x00,0x00,0x01,0x00,0x00,0x00,0x01,0x00,0x00,0x00,0x01,0x00,0x00,0x00,0x01,0x00,
    0x00,0x00,0x01,0x00,0x00,0x00,0x01,0x00,0x00,0x00,0x01,0x00,0x00,0x00,0x01,0x00,
    0x00,0x00,0x01,0x00,0x00,0x00,0x01,0x00,0x00,0x00,0x01,0x00,0x00,0x00,0x01,0x00,
    0x00,0x00,0x01,0x00,0x00,0x00,0x01,0x00,0x00,0x00,0x01,0x00,0x00,0x00,0x01,0x00,
    0x00,0x00,0x01,0x00,0x00,0x00,0x01,0x00,0x00,0x00,0x01,0x00,0x00,0x00,0x01,0x00,
    0x00,0x00,0x01,0x00,0x00,0x00,0x01,0x00,0x00,0x00,0x01,0x00,0x00,0x00,0x01,0x00,
    0x00,0x00,0x01,0x00,0x00,0x00,0x01,0x00,0x00,0x00,0x01,0x00,0x00,0x00,0x01,0x00,
    0x00,0x00,0x01,0x00,0x00,0x00,0x01,0x00,0x00,0x00,0x01,0x00,0x00,0x00,0x01,0x00,
    0x00,0x00,0x01,0x00,0x00,0x00,0x01,0x00,0x00,0x00,0x01,0x00,0x00,0x00,0x01,0x00,
    0x00,0x00,0x01,0x00,0x00,0x00,0x01,0x00,0x00,0x00,0x01,0x00,0x00,0x00,0x01,0x00,
    0x00,0x00,0x01,0x00,0x00,0x00,0x01,0x00,0x00,0x00,0x01,0x00,0x00,0x00,0x01,0x00,
    0x00,0x00,0x01,0x00,0x00,0x00,0x01,0x00,0x00,0x00,0x01,0x00,0x00,0x00,0x01,0x00,
    0x00,0x00,0x01,0x00,0x00,0x00,0x01,0x00,0x00,0x00,0x01,0x00,0x00,0x00,0x01,0x00,
    0x00,0x00,0x01,0x00,0x00,0x00,0x01,0x00,0x00,0x00,0x01,0x00,0x00,0x00,0x01,0x00,
    0x00,0x00,0x01,0x00,0x00,0x00,0x01,0x00,0x00,0x00,0x01,0x00,0x00,0x00,0x01,0x00,
    0x00,0x00,0x01,0x00,0x00,0x00,0x01,0x00,0x00,0x00,0x01,0x00,0x00,0x00,0x01,0x00,
    0x00,0x00,0x01,0x00,0x00,0x00,0x01,0x00,0x00,0x00,0x01,0x00,0x00,0x00,0x01,0x00,
    0x00,0x00,0x01,0x00,0x00,0x00,0x01,0x00,0x00,0x00,0x01,0x00,0x00,0x00,0x01,0x00,
    0x00,0x00,0x01,0x00,0x00,0x00,0x01,0x00,0x00,0x00,0x01,0x00,0x00,0x00,0x01,0x00,
    0x00,0x00,0x01,0x00,0x00,0x00,0x01,0x00,0x00,0x00,0x01,0x00,0x00,0x00,0x01,0x00,
    0x00,0x00,0x01,0x00,0x00,0x00,0x01,0x00,0x00,0x00,0x01,0x00,0x00,0x00,0x01,0x00,
    0x00,0x00,0x01,0x00,0x00,0x00,0x01,0x00,0x00,0x00,0x01,0x00,0x00,0x00,0x01,0x00,
    0x00,0x00,0x01,0x00,0x00,0x00,0x01,0x00,0x00,0x00,0x01,0x00,0x00,0x00,0x01,0x00,
    0x00,0x00,0x01,0x00,0x00,0x00,0x01,0x00,0x00,0x00,0x01,0x00,0x00,0x00,0x01,0x00,
    0x00,0x00,0x01,0x00,0x00,0x00,0x01,0x00,0x00,0x00,0x01,0x00,0x00,0x00,0x01,0x00,
    0x00,0x00,0x01,0x00,0x00,0x00,0x01,0x00,0x00,0x00,0x01,0x00,0x00,0x00,0x01,0x00,
    0x00,0x00,0x01,0x00,0x00,0x00,0x01,0x00,0x00,0x00,0x01,0x00,0x00,0x00,0x01,0x00,
    0x00,0x00,0x01,0x00,0x00,0x00,0x01,0x00,0x00,0x00,0x01,0x00,0x00,0x00,0x01,0x00,
    0x00,0x00,0x01,0x00,0x00,0x00,0x01,0x00,0x00,0x00,0x01,0x00,0x00,0x00,0x01,0x00,
    0x00,0x00,0x01,0x00,0x00,0x00,0x01,0x00,0x00,0x00,0x01,0x00,0x00,0x00,0x01,0x00,
    0x00,0x00,0x01,0x00,0x00,0x00,0x01,0x00,0x00,0x00,0x01,0x00,0x00,0x00,0x01,0x00,
    0x00,0x00,0x01,0x00,0x00,0x00,0x01,0x00,0x00,0x00,0x01,0x00,0x00,0x00,0x01,0x00,
    0x00,0x00,0x01,0x00,0x00,0x00,0x01,0x00,0x00,0x00,0x01,0x00,0x00,0x00,0x01,0x00,
    0x00,0x00,0x01,0x00,0x00,0x00,0x01,0x00,0x00,0x00,0x01,0x00,0x00,0x00,0x01,0x00,
    0x00,0x00,0x01,0x00,0x00,0x00,0x01,0x00,0x00,0x00,0x01,0x00,0x00,0x00,0x01,0x00,
    0x00,0x00,0x01,0x00,0x00,0x00,0x01,0x00,0x00,0x00,0x01,0x00,0x00,0x00,0x01,0x00,
    0x00,0x00,0x01,0x00,0x00,0x00,0x01,0x00,0x00,0x00,0x01,0x00,0x00,0x00,0x01,0x00,
    0x00,0x00,0x01,0x00,0x00,0x00,0x01,0x00,0x00,0x00,0x01,0x00,0x00,0x00,0x01,0x00,
    0x00,0x00,0x01,0x00,0x00,0x00,0x01,0x00,0x00,0x00,0x01,0x00,0x00,0x00,0x01,0x00,
    0x00,0x00,0x01,0x00,0x00,0x00,0x01,0x00,0x00,0x00,0x01,0x00,0x00,0x00,0x01,0x00,
    0x00,0x00,0x01,0x00,0x00,0x00,0x01,0x00,0x00,0x00,0x01,0x00,0x00,0x00,0x01,0x00,
    0x00,0x00,0x01,0x00,0x00,0x00,0x01,0x00,0x00,0x00,0x01,0x00,0x00,0x00,0x01,0x00,
    0x00,0x00,0x01,0x00,0x00,0x00,0x01,0x00,0x00,0x00,0x01,0x00,0x00,0x00,0x01,0x00,
    0x00,0x00,0x01,0x00,0x00,0x00,0x01,0x00,0x00,0x00,0x01,0x00,0x00,0x00,0x01,0x00,
    0x00,0x00,0x01,0x00,0x00,0x00,0x01,0x00,0x00,0x00,0x01,0x00,0x00,0x00,0x01,0x00,
    0x00,0x00,0x01,0x00,0x00,0x00,0x01,0x00,0x00,0x00,0x01,0x00,0x00,0x00,0x01,0x00,
    0x00,0x00,0x01,0x00,0x00,0x00,0x01,0x00,0x00,0x00,0x01,0x00,0x00,0x00,0x01,0x00,
    0x00,0x00,0x01,0x00,0x00,0x00,0x01,0x00,0x00,0x00,0x01,0x00,0x00,0x00,0x01,0x00,
    0x00,0x00,0x01,0x00,0x00,0x00,0x01,0x00,0x00,0x00,0x01,0x00,0x00,0x00,0x01,0x00,
    0x00,0x00,0x01,0x00,0x00,0x00,0x01,0x00,0x00,0x00,0x01,0x00,0x00,0x00,0x01,0x00,
    0x00,0x00,0x01,0x00,0x00,0x00,0x01,0x00,0x00,0x00,0x01,0x00,0x00,0x00,0x01,0x00,
    0x00,0x00,0x01,0x00,0x00,0x00,0x01,0x00,0x00,0x00,0x01,0x00,0x00,0x00,0x01,0x00,
    0x00,0x00,0x01,0x00,0x00,0x00,0x01,0x00,0x00,0x00,0x01,0x00,0x00,0x00,0x01,0x00,
    0x00,0x00,0x01,0x00,0x00,0x00,0x01,0x00,0x00,0x00,0x01,0x00,0x00,0x00,0x01,0x00,
    0x00,0x00,0x01,0x00,0x00,0x00,0x01,0x00,0x00,0x00,0x01,0x00,0x00,0x00,0x01,0x00,
    0x00,0x00,0x01,0x00,0x00,0x00,0x01,0x00,0x00,0x00,0x01,0x00,0x00,0x00,0x01,0x00,
    0x00,0x00,0x01,0x00,0x00,0x00,0x01,0x00,0x00,0x00,0x01,0x00,0x00,0x00,0x01,0x00,
    0x00,0x00,0x01,0x00,0x00,0x00,0x01,0x00,0x00,0x00,0x01,0x00,0x00,0x00,0x01,0x00,
    0x00,0x00,0x01,0x00,0x00,0x00,0x01,0x00,0x00,0x00,0x01,0x00,0x00,0x00,0x01,0x00,
    0x00,0x00,0x01,0x00,0x00,0x00,0x01,0x00,0x00,0x00,0x01,0x00,0x00,0x00,0x01,0x00,
    0x00,0x00,0x01,0x00,0x00,0x00,0x01,0x00,0x00,0x00,0x01,0x00,0x00,0x00,0x01,0x00,
    0x00,0x00,0x01,0x00,0x00,0x00,0x01,0x00,0x00,0x00,0x01,0x00,0x00,0x00,0x01,0x00,
    0x00,0x00,0x01,0x00,0x00,0x00,0x01,0x00,0x00,0x00,0x01,0x00,0x00,0x00,0x01,0x00,
    0x00,0x00,0x01,0x00,0x00,0x00,0x01,0x00,0x00,0x00,0x01,0x00,0x00,0x00,0x01,0x00,
    0x00,0x00,0x01,0x00,0x00,0x00,0x01,0x00,0x00,0x00,0x01,0x00,0x00,0x00,0x01,0x00,
    0x00,0x00,0x01,0x00,0x00,0x00,0x01,0x00,0x00,0x00,0x01,0x00,0x00,0x00,0x01,0x00,
    0x00,0x00,0x01,0x00,0x00,0x00,0x01,0x00,0x00,0x00,0x01,0x00,0x00,0x00,0x01,0x00,
    0x00,0x00,0x01,0x00,0x00,0x00,0x01,0x00,0x00,0x00,0x01,0x00,0x00,0x00,0x01,0x00,
    0x00,0x00,0x01,0x00,0x00,0x00,0x01,0x00,0x00,0x00,0x01,0x00,0x00,0x00,0x01,0x00,
    0x00,0x00,0x01,0x00,0x00,0x00,0x01,0x00,0x00,0x00,0x01,0x00,0x00,0x00,0x01,0x00,
    0x00,0x00,0x01,0x00,0x00,0x00,0x01,0x00,0x00,0x00,0x01,0x00,0x00,0x00,0x01,0x00,
    0x00,0x00,0x01,0x00,0x00,0x00,0x01,0x00,0x00,0x00,0x01,0x00,0x00,0x00,0x01,0x00,
    0x00,0x00,0x01,0x00,0x00,0x00,0x01,0x00,0x00,0x00,0x01,0x00,0x00,0x00,0x01,0x00,
    0x00,0x00,0x01,0x00,0x00,0x00,0x01,0x00,0x00,0x00,0x01,0x00,0x00,0x00,0x01,0x00,
    0x00,0x00,0x01,0x00,0x00,0x00,0x01,0x00,0x00,0x00,0x01,0x00,0x00,0x00,0x01,0x00,
    0x00,0x00,0x01,0x00,0x00,0x00,0x01,0x00,0x00,0x00,0x01,0x00,0x00,0x00,0x01,0x00,
    0x00,0x00,0x01,0x00,0x00,0x00,0x01,0x00,0x00,0x00,0x01,0x00,0x00,0x00,0x01,0x00,
    0x00,0x00,0x01,0x00,0x00,0x00,0x01,0x00,0x00,0x00,0x01,0x00,0x00,0x00,0x01,0x00,
    0x00,0x00,0x01,0x00,0x00,0x00,0x01,0x00,0x00,0x00,0x01,0x00,0x00,0x00,0x01,0x00,
    0x00,0x00,0x01,0x00,0x00,0x00,0x01,0x00,0x00,0x00,0x01,0x00,0x00,0x00,0x01,0x00,
    0x00,0x00,0x01,0x00,0x00,0x00,0x01,0x00,0x00,0x00,0x01,0x00,0x00,0x00,0x01,0x00,
    0x00,0x00,0x01,0x00,0x00,0x00,0x01,0x00,0x00,0x00,0x01,0x00,0x00,0x00,0x01,0x00,
    0x00,0x00,0x01,0x00,0x00,0x00,0x01,0x00,0x00,0x00,0x01,0x00,0x00,0x00,0x01,0x00,
    0x00,0x00,0x01,0x00,0x00,0x00,0x01,0x00,0x00,0x00,0x01,0x00,0x00,0x00,0x01,0x00,
    0x00,0x00,0x01,0x00,0x00,0x00,0x01,0x00,0x00,0x00,0x01,0x00,0x00,0x00,0x01,0x00,
    0x00,0x00,0x01,0x00,0x00,0x00,0x01,0x00,0x00,0x00,0x01,0x00,0x00,0x00,0x01,0x00,
    0x00,0x00,0x01,0x00,0x00,0x00,0x01,0x00,0x00,0x00,0x01,0x00,0x00,0x00,0x01,0x00,
    0x00,0x00,0x01,0x00,0x00,0x00,0x01,0x00,0x00,0x00,0x01,0x00,0x00,0x00,0x01,0x00,
    0x00,0x00,0x01,0x00,0x00,0x00,0x01,0x00,0x00,0x00,0x01,0x00,0x00,0x00,0x01,0x00,
    0x00,0x00,0x01,0x00,0x00,0x00,0x01,0x00,0x00,0x00,0x01,0x00,0x00,0x00,0x01,0x00,
    0x00,0x00,0x01,0x00,0x00,0x00,0x01,0x00,0x00,0x00,0x01,0x00,0x00,0x00,0x01,0x00,
    0x00,0x00,0x01,0x00,0x00,0x00,0x01,0x00,0x00,0x00,0x01,0x00,0x00,0x00,0x01,0x00,
    0x00,0x00,0x01,0x00,0x00,0x00,0x01,0x00,0x00,0x00,0x01,0x00,0x00,0x00,0x01,0x00,
    0x00,0x00,0x01,0x00,0x00,0x00,0x01,0x00,0x00,0x00,0x01,0x00,0x00,0x00,0x01,0x00,
    0x00,0x00,0x01,0x00,0x00,0x00,0x01,0x00,0x00,0x00,0x01,0x00,0x00,0x00,0x01,0x00,
    0x00,0x00,0x01,0x00,0x00,0x00,0x01,0x00,0x00,0x00,0x01,0x00,0x00,0x00,0x01,0x00,
    0x00,0x00,0x01,0x00,0x00,0x00,0x01,0x00,0x00,0x00,0x01,0x00,0x00,0x00,0x01,0x00,
    0x00,0x00,0x01,0x00,0x00,0x00,0x01,0x00,0x00,0x00,0x01,0x00,0x00,0x00,0x01,0x00,
    0x00,0x00,0x01,0x00,0x00,0x00,0x01,0x00,0x00,0x00,0x01,0x00,0x00,0x00,0x01,0x00,
    0x00,0x00,0x01,0x00,0x00,0x00,0x01,0x00,0x00,0x00,0x01,0x00,0x00,0x00,0x01,0x00,
    0x00,0x00,0x01,0x00,0x00,0x00,0x01,0x00,0x00,0x00,0x01,0x00,0x00,0x00,0x01,0x00,
    0x00,0x00,0x01,0x00,0x00,0x00,0x01,0x00,0x00,0x00,0x01,0x00,0x00,0x00,0x01,0x00,
    0x00,0x00,0x01,0x00,0x00,0x00,0x01,0x00,0x00,0x00,0x01,0x00,0x06,0x00,0x00,0x00,
    0x6e,0x32,0x62,0x5f,0x57,0x31,0x02,0x00,0x00,0x00,0x20,0x00,0x00,0x00,0x00,0x01,
    0x00,0x00,0x01,0x00,0x00,0x00,0x00,0x02,0x00,0x00,0x00,0x00,0x00,0x00,0x01,0x00,
    0x00,0x00,0x02,0x00,0x00,0x00,0x03,0x00,0x00,0x00,0x04,0x00,0x00,0x00,0x05,0x00,
    0x00,0x00,0x06,0x00,0x00,0x00,0x07,0x00,0x00,0x00,0x08,0x00,0x00,0x00,0x09,0x00,
    0x00,0x00,0x0a,0x00,0x00,0x00,0x0b,0x00,0x00,0x00,0x0c,0x00,0x00,0x00,0x0d,0x00,
    0x00,0x00,0x0e,0x00,0x00,0x00,0x0f,0x00,0x00,0x00,0x10,0x01,0x00,0x00,0x11,0x01,
    0x00,0x00,0x12,0x01,0x00,0x00,0x13,0x01,0x00,0x00,0x14,0x01,0x00,0x00,0x15,0x01,
    0x00,0x00,0x16,0x01,0x00,0x00,0x17,0x01,0x00,0x00,0x18,0x01,0x00,0x00,0x19,0x01,
    0x00,0x00,0x1a,0x01,0x00,0x00,0x1b,0x01,0x00,0x00,0x1c,0x01,0x00,0x00,0x1d,0x01,
    0x00,0x00,0x1e,0x01,0x00,0x00,0x1f,0x01,0x00,0x00,0x20,0x02,0x00,0x00,0x21,0x02,
    0x00,0x00,0x22,0x02,0x00,0x00,0x23,0x02,0x00,0x00,0x24,0x02,0x00,0x00,0x25,0x02,
    0x00,0x00,0x26,0x02,0x00,0x00,0x27,0x02,0x00,0x00,0x28,0x02,0x00,0x00,0x29,0x02,
    0x00,0x00,0x2a,0x02,0x00,0x00,0x2b,0x02,0x00,0x00,0x2c,0x02,0x00,0x00,0x2d,0x02,
    0x00,0x00,0x2e,0x02,0x00,0x00,0x2f,0x02,0x00,0x00,0x30,0x03,0x00,0x00,0x31,0x03,
    0x00,0x00,0x32,0x03,0x00,0x00,0x33,0x03,0x00,0x00,0x34,0x03,0x00,0x00,0x35,0x03,
    0x00,0x00,0x36,0x03,0x00,0x00,0x37,0x03,0x00,0x00,0x38,0x03,0x00,0x00,0x39,0x03,
    0x00,0x00,0x3a,0x03,0x00,0x00,0x3b,0x03,0x00,0x00,0x3c,0x03,0x00,0x00,0x3d,0x03,
    0x00,0x00,0x3e,0x03,0x00,0x00,0x3f,0x03,0x00,0x00,0x40,0x04,0x00,0x00,0x41,0x04,
    0x00,0x00,0x42,0x04,0x00,0x00,0x43,0x04,0x00,0x00,0x44,0x04,0x00,0x00,0x45,0x04,
    0x00,0x00,0x46,0x04,0x00,0x00,0x47,0x04,0x00,0x00,0x48,0x04,0x00,0x00,0x49,0x04,
    0x00,0x00,0x4a,0x04,0x00,0x00,0x4b,0x04,0x00,0x00,0x4c,0x04,0x00,0x00,0x4d,0x04,
    0x00,0x00,0x4e,0x04,0x00,0x00,0x4f,0x04,0x00,0x00,0x50,0x05,0x00,0x00,0x51,0x05,
    0x00,0x00,0x52,0x05,0x00,0x00,0x53,0x05,0x00,0x00,0x54,0x05,0x00,0x00,0x55,0x05,
    0x00,0x00,0x56,0x05,0x00,0x00,0x57,0x05,0x00,0x00,0x58,0x05,0x00,0x00,0x59,0x05,
    0x00,0x00,0x5a,0x05,0x00,0x00,0x5b,0x05,0x00,0x00,0x5c,0x05,0x00,0x00,0x5d,0x05,
    0x00,0x00,0x5e,0x05,0x00,0x00,0x5f,0x05,0x00,0x00,0x60,0x06,0x00,0x00,0x61,0x06,
    0x00,0x00,0x62,0x06,0x00,0x00,0x63,0x06,0x00,0x00,0x64,0x06,0x00,0x00,0x65,0x06,
    0x00,0x00,0x66,0x06,0x00,0x00,0x67,0x06,0x00,0x00,0x68,0x06,0x00,0x00,0x69,0x06,
    0x00,0x00,0x6a,0x06,0x00,0x00,0x6b,0x06,0x00,0x00,0x6c,0x06,0x00,0x00,0x6d,0x06,
    0x00,0x00,0x6e,0x06,0x00,0x00,0x6f,0x06,0x00,0x00,0x70,0x07,0x00,0x00,0x71,0x07,
    0x00,0x00,0x72,0x07,0x00,0x00,0x73,0x07,0x00,0x00,0x74,0x07,0x00,0x00,0x75,0x07,
    0x00,0x00,0x76,0x07,0x00,0x00,0x77,0x07,0x00,0x00,0x78,0x07,0x00,0x00,0x79,0x07,
    0x00,0x00,0x7a,0x07,0x00,0x00,0x7b,0x07,0x00,0x00,0x7c,0x07,0x00,0x00,0x7d,0x07,
    0x00,0x00,0x7e,0x07,0x00,0x00,0x7f,0x07,0x00,0x00,0x80,0x08,0x00,0x00,0x81,0x08,
    0x00,0x00,0x82,0x08,0x00,0x00,0x83,0x08,0x00,0x00,0x84,0x08,0x00,0x00,0x85,0x08,
    0x00,0x00,0x86,0x08,0x00,0x00,0x87,0x08,0x00,0x00,0x88,0x08,0x00,0x00,0x89,0x08,
    0x00,0x00,0x8a,0x08,0x00,0x00,0x8b,0x08,0x00,0x00,0x8c,0x08,0x00,0x00,0x8d,0x08,
    0x00,0x00,0x8e,0x08,0x00,0x00,0x8f,0x08,0x00,0x00,0x90,0x09,0x00,0x00,0x91,0x09,
    0x00,0x00,0x92,0x09,0x00,0x00,0x93,0x09,0x00,0x00,0x94,0x09,0x00,0x00,0x95,0x09,
    0x00,0x00,0x96,0x09,0x00,0x00,0x97,0x09,0x00,0x00,0x98,0x09,0x00,0x00,0x99,0x09,
    0x00,0x00,0x9a,0x09,0x00,0x00,0x9b,0x09,0x00,0x00,0x9c,0x09,0x00,0x00,0x9d,0x09,
    0x00,0x00,0x9e,0x09,0x00,0x00,0x9f,0x09,0x00,0x00,0xa0,0x0a,0x00,0x00,0xa1,0x0a,
    0x00,0x00,0xa2,0x0a,0x00,0x00,0xa3,0x0a,0x00,0x00,0xa4,0x0a,0x00,0x00,0xa5,0x0a,
    0x00,0x00,0xa6,0x0a,0x00,0x00,0xa7,0x0a,0x00,0x00,0xa8,0x0a,0x00,0x00,0xa9,0x0a,
    0x00,0x00,0xaa,0x0a,0x00,0x00,0xab,0x0a,0x00,0x00,0xac,0x0a,0x00,0x00,0xad,0x0a,
    0x00,0x00,0xae,0x0a,0x00,0x00,0xaf,0x0a,0x00,0x00,0xb0,0x0b,0x00,0x00,0xb1,0x0b,
    0x00,0x00,0xb2,0x0b,0x00,0x00,0xb3,0x0b,0x00,0x00,0xb4,0x0b,0x00,0x00,0xb5,0x0b,
    0x00,0x00,0xb6,0x0b,0x00,0x00,0xb7,0x0b,0x00,0x00,0xb8,0x0b,0x00,0x00,0xb9,0x0b,
    0x00,0x00,0xba,0x0b,0x00,0x00,0xbb,0x0b,0x00,0x00,0xbc,0x0b,0x00,0x00,0xbd,0x0b,
    0x00,0x00,0xbe,0x0b,0x00,0x00,0xbf,0x0b,0x00,0x00,0xc0,0x0c,0x00,0x00,0xc1,0x0c,
    0x00,0x00,0xc2,0x0c,0x00,0x00,0xc3,0x0c,0x00,0x00,0xc4,0x0c,0x00,0x00,0xc5,0x0c,
    0x00,0x00,0xc6,0x0c,0x00,0x00,0xc7,0x0c,0x00,0x00,0xc8,0x0c,0x00,0x00,0xc9,0x0c,
    0x00,0x00,0xca,0x0c,0x00,0x00,0xcb,0x0c,0x00,0x00,0xcc,0x0c,0x00,0x00,0xcd,0x0c,
    0x00,0x00,0xce,0x0c,0x00,0x00,0xcf,0x0c,0x00,0x00,0xd0,0x0d,0x00,0x00,0xd1,0x0d,
    0x00,0x00,0xd2,0x0d,0x00,0x00,0xd3,0x0d,0x00,0x00,0xd4,0x0d,0x00,0x00,0xd5,0x0d,
    0x00,0x00,0xd6,0x0d,0x00,0x00,0xd7,0x0d,0x00,0x00,0xd8,0x0d,0x00,0x00,0xd9,0x0d,
    0x00,0x00,0xda,0x0d,0x00,0x00,0xdb,0x0d,0x00,0x00,0xdc,0x0d,0x00,0x00,0xdd,0x0d,
    0x00,0x00,0xde,0x0d,0x00,0x00,0xdf,0x0d,0x00,0x00,0xe0,0x0e,0x00,0x00,0xe1,0x0e,
    0x00,0x00,0xe2,0x0e,0x00,0x00,0xe3,0x0e,0x00,0x00,0xe4,0x0e,0x00,0x00,0xe5,0x0e,
    0x00,0x00,0xe6,0x0e,0x00,0x00,0xe7,0x0e,0x00,0x00,0xe8,0x0e,0x00,0x00,0xe9,0x0e,
    0x00,0x00,0xea,0x0e,0x00,0x00,0xeb,0x0e,0x00,0x00,0xec,0x0e,0x00,0x00,0xed,0x0e,
    0x00,0x00,0xee,0x0e,0x00,0x00,0xef,0x0e,0x00,0x00,0xf0,0x0f,0x00,0x00,0xf1,0x0f,
    0x00,0x00,0xf2,0x0f,0x00,0x00,0xf3,0x0f,0x00,0x00,0xf4,0x0f,0x00,0x00,0xf5,0x0f,
    0x00,0x00,0xf6,0x0f,0x00,0x00,0xf7,0x0f,0x00,0x00,0xf8,0x0f,0x00,0x00,0xf9,0x0f,
    0x00,0x00,0xfa,0x0f,0x00,0x00,0xfb,0x0f,0x00,0x00,0xfc,0x0f,0x00,0x00,0xfd,0x0f,
    0x00,0x00,0xfe,0x0f,0x00,0x00,0xff,0x0f,0x00,0x00,0x00,0x10,0x00,0x00,0x10,0x10,
    0x00,0x00,0x20,0x10,0x00,0x00,0x30,0x10,0x00,0x00,0x40,0x10,0x00,0x00,0x50,0x10,
    0x00,0x00,0x60,0x10,0x00,0x00,0x70,0x10,0x00,0x00,0x80,0x10,0x00,0x00,0x90,0x10,
    0x00,0x00,0xa0,0x10,0x00,0x00,0xb0,0x10,0x00,0x00,0xc0,0x10,0x00,0x00,0xd0,0x10,
    0x00,0x00,0xe0,0x10,0x00,0x00,0xf0,0x10,0x00,0x00,0x01,0x11,0x00,0x00,0x11,0x11,
    0x00,0x00,0x21,0x11,0x00,0x00,0x31,0x11,0x00,0x00,0x41,0x11,0x00,0x00,0x51,0x11,
    0x00,0x00,0x61,0x11,0x00,0x00,0x71,0x11,0x00,0x00,0x81,0x11,0x00,0x00,0x91,0x11,
    0x00,0x00,0xa1,0x11,0x00,0x00,0xb1,0x11,0x00,0x00,0xc1,0x11,0x00,0x00,0xd1,0x11,
    0x00,0x00,0xe1,0x11,0x00,0x00,0xf1,0x11,0x00,0x00,0x02,0x12,0x00,0x00,0x12,0x12,
    0x00,0x00,0x22,0x12,0x00,0x00,0x32,0x12,0x00,0x00,0x42,0x12,0x00,0x00,0x52,0x12,
    0x00,0x00,0x62,0x12,0x00,0x00,0x72,0x12,0x00,0x00,0x82,0x12,0x00,0x00,0x92,0x12,
    0x00,0x00,0xa2,0x12,0x00,0x00,0xb2,0x12,0x00,0x00,0xc2,0x12,0x00,0x00,0xd2,0x12,
    0x00,0x00,0xe2,0x12,0x00,0x00,0xf2,0x12,0x00,0x00,0x03,0x13,0x00,0x00,0x13,0x13,
    0x00,0x00,0x23,0x13,0x00,0x00,0x33,0x13,0x00,0x00,0x43,0x13,0x00,0x00,0x53,0x13,
    0x00,0x00,0x63,0x13,0x00,0x00,0x73,0x13,0x00,0x00,0x83,0x13,0x00,0x00,0x93,0x13,
    0x00,0x00,0xa3,0x13,0x00,0x00,0xb3,0x13,0x00,0x00,0xc3,0x13,0x00,0x00,0xd3,0x13,
    0x00,0x00,0xe3,0x13,0x00,0x00,0xf3,0x13,0x00,0x00,0x04,0x14,0x00,0x00,0x14,0x14,
    0x00,0x00,0x24,0x14,0x00,0x00,0x34,0x14,0x00,0x00,0x44,0x14,0x00,0x00,0x54,0x14,
    0x00,0x00,0x64,0x14,0x00,0x00,0x74,0x14,0x00,0x00,0x84,0x14,0x00,0x00,0x94,0x14,
    0x00,0x00,0xa4,0x14,0x00,0x00,0xb4,0x14,0x00,0x00,0xc4,0x14,0x00,0x00,0xd4,0x14,
    0x00,0x00,0xe4,0x14,0x00,0x00,0xf4,0x14,0x00,0x00,0x05,0x15,0x00,0x00,0x15,0x15,
    0x00,0x00,0x25,0x15,0x00,0x00,0x35,0x15,0x00,0x00,0x45,0x15,0x00,0x00,0x55,0x15,
    0x00,0x00,0x65,0x15,0x00,0x00,0x75,0x15,0x00,0x00,0x85,0x15,0x00,0x00,0x95,0x15,
    0x00,0x00,0xa5,0x15,0x00,0x00,0xb5,0x15,0x00,0x00,0xc5,0x15,0x00,0x00,0xd5,0x15,
    0x00,0x00,0xe5,0x15,0x00,0x00,0xf5,0x15,0x00,0x00,0x06,0x16,0x00,0x00,0x16,0x16,
    0x00,0x00,0x26,0x16,0x00,0x00,0x36,0x16,0x00,0x00,0x46,0x16,0x00,0x00,0x56,0x16,
    0x00,0x00,0x66,0x16,0x00,0x00,0x76,0x16,0x00,0x00,0x86,0x16,0x00,0x00,0x96,0x16,
    0x00,0x00,0xa6,0x16,0x00,0x00,0xb6,0x16,0x00,0x00,0xc6,0x16,0x00,0x00,0xd6,0x16,
    0x00,0x00,0xe6,0x16,0x00,0x00,0xf6,0x16,0x00,0x00,0x07,0x17,0x00,0x00,0x17,0x17,
    0x00,0x00,0x27,0x17,0x00,0x00,0x37,0x17,0x00,0x00,0x47,0x17,0x00,0x00,0x57,0x17,
    0x00,0x00,0x67,0x17,0x00,0x00,0x77,0x17,0x00,0x00,0x87,0x17,0x00,0x00,0x97,0x17,
    0x00,0x00,0xa7,0x17,0x00,0x00,0xb7,0x17,0x00,0x00,0xc7,0x17,0x00,0x00,0xd7,0x17,
    0x00,0x00,0xe7,0x17,0x00,0x00,0xf7,0x17,0x00,0x00,0x08,0x18,0x00,0x00,0x18,0x18,
    0x00,0x00,0x28,0x18,0x00,0x00,0x38,0x18,0x00,0x00,0x48,0x18,0x00,0x00,0x58,0x18,
    0x00,0x00,0x68,0x18,0x00,0x00,0x78,0x18,0x00,0x00,0x88,0x18,0x00,0x00,0x98,0x18,
    0x00,0x00,0xa8,0x18,0x00,0x00,0xb8,0x18,0x00,0x00,0xc8,0x18,0x00,0x00,0xd8,0x18,
    0x00,0x00,0xe8,0x18,0x00,0x00,0xf8,0x18,0x00,0x00,0x09,0x19,0x00,0x00,0x19,0x19,
    0x00,0x00,0x29,0x19,0x00,0x00,0x39,0x19,0x00,0x00,0x49,0x19,0x00,0x00,0x59,0x19,
    0x00,0x00,0x69,0x19,0x00,0x00,0x79,0x19,0x00,0x00,0x89,0x19,0x00,0x00,0x99,0x19,
    0x00,0x00,0xa9,0x19,0x00,0x00,0xb9,0x19,0x00,0x00,0xc9,0x19,0x00,0x00,0xd9,0x19,
    0x00,0x00,0xe9,0x19,0x00,0x00,0xf9,0x19,0x00,0x00,0x0a,0x1a,0x00,0x00,0x1a,0x1a,
    0x00,0x00,0x2a,0x1a,0x00,0x00,0x3a,0x1a,0x00,0x00,0x4a,0x1a,0x00,0x00,0x5a,0x1a,
    0x00,0x00,0x6a,0x1a,0x00,0x00,0x7a,0x1a,0x00,0x00,0x8a,0x1a,0x00,0x00,0x9a,0x1a,
    0x00,0x00,0xaa,0x1a,0x00,0x00,0xba,0x1a,0x00,0x00,0xca,0x1a,0x00,0x00,0xda,0x1a,
    0x00,0x00,0xea,0x1a,0x00,0x00,0xfa,0x1a,0x00,0x00,0x0b,0x1b,0x00,0x00,0x1b,0x1b,
    0x00,0x00,0x2b,0x1b,0x00,0x00,0x3b,0x1b,0x00,0x00,0x4b,0x1b,0x00,0x00,0x5b,0x1b,
    0x00,0x00,0x6b,0x1b,0x00,0x00,0x7b,0x1b,0x00,0x00,0x8b,0x1b,0x00,0x00,0x9b,0x1b,
    0x00,0x00,0xab,0x1b,0x00,0x00,0xbb,0x1b,0x00,0x00,0xcb,0x1b,0x00,0x00,0xdb,0x1b,
    0x00,0x00,0xeb,0x1b,0x00,0x00,0xfb,0x1b,0x00,0x00,0x0c,0x1c,0x00,0x00,0x1c,0x1c,
    0x00,0x00,0x2c,0x1c,0x00,0x00,0x3c,0x1c,0x00,0x00,0x4c,0x1c,0x00,0x00,0x5c,0x1c,
    0x00,0x00,0x6c,0x1c,0x00,0x00,0x7c,0x1c,0x00,0x00,0x8c,0x1c,0x00,0x00,0x9c,0x1c,
    0x00,0x00,0xac,0x1c,0x00,0x00,0xbc,0x1c,0x00,0x00,0xcc,0x1c,0x00,0x00,0xdc,0x1c,
    0x00,0x00,0xec,0x1c,0x00,0x00,0xfc,0x1c,0x00,0x00,0x0d,0x1d,0x00,0x00,0x1d,0x1d,
    0x00,0x00,0x2d,0x1d,0x00,0x00,0x3d,0x1d,0x00,0x00,0x4d,0x1d,0x00,0x00,0x5d,0x1d,
    0x00,0x00,0x6d,0x1d,0x00,0x00,0x7d,0x1d,0x00,0x00,0x8d,0x1d,0x00,0x00,0x9d,0x1d,
    0x00,0x00,0xad,0x1d,0x00,0x00,0xbd,0x1d,0x00,0x00,0xcd,0x1d,0x00,0x00,0xdd,0x1d,
    0x00,0x00,0xed,0x1d,0x00,0x00,0xfd,0x1d,0x00,0x00,0x0e,0x1e,0x00,0x00,0x1e,0x1e,
    0x00,0x00,0x2e,0x1e,0x00,0x00,0x3e,0x1e,0x00,0x00,0x4e,0x1e,0x00,0x00,0x5e,0x1e,
    0x00,0x00,0x6e,0x1e,0x00,0x00,0x7e,0x1e,0x00,0x00,0x8e,0x1e,0x00,0x00,0x9e,0x1e,
    0x00,0x00,0xae,0x1e,0x00,0x00,0xbe,0x1e,0x00,0x00,0xce,0x1e,0x00,0x00,0xde,0x1e,
    0x00,0x00,0xee,0x1e,0x00,0x00,0xfe,0x1e,0x00,0x00,0x0f,0x1f,0x00,0x00,0x1f,0x1f,
    0x00,0x00,0x2f,0x1f,0x00,0x00,0x3f,0x1f,0x00,0x00,0x4f,0x1f,0x00,0x00,0x5f,0x1f,
    0x00,0x00,0x6f,0x1f,0x00,0x00,0x7f,0x1f,0x00,0x00,0x8f,0x1f,0x00,0x00,0x9f,0x1f,
    0x00,0x00,0xaf,0x1f,0x00,0x00,0xbf,0x1f,0x00,0x00,0xcf,0x1f,0x00,0x00,0xdf,0x1f,
    0x00,0x00,0xef,0x1f,0x00,0x00,0xff,0x1f,0x00,0x00,0x00,0x00,0x01,0x00,0x00,0x00,
    0x01,0x00,0x00,0x00,0x01,0x00,0x00,0x00,0x01,0x00,0x00,0x00,0x01,0x00,0x00,0x00,
    0x01,0x00,0x00,0x00,0x01,0x00,0x00,0x00,0x01,0x00,0x00,0x00,0x01,0x00,0x00,0x00,
    0x01,0x00,0x00,0x00,0x01,0x00,0x00,0x00,0x01,0x00,0x00,0x00,0x01,0x00,0x00,0x00,
    0x01,0x00,0x00,0x00,0x01,0x00,0x00,0x00,0x01,0x00,0x00,0x00,0x01,0x00,0x00,0x00,
    0x01,0x00,0x00,0x00,0x01,0x00,0x00,0x00,0x01,0x00,0x00,0x00,0x01,0x00,0x00,0x00,
    0x01,0x00,0x00,0x00,0x01,0x00,0x00,0x00,0x01,0x00,0x00,0x00,0x01,0x00,0x00,0x00,
    0x01,0x00,0x00,0x00,0x01,0x00,0x00,0x00,0x01,0x00,0x00,0x00,0x01,0x00,0x00,0x00,
    0x01,0x00,0x00,0x00,0x01,0x00,0x00,0x00,0x01,0x00,0x00,0x00,0x01,0x00,0x00,0x00,
    0x01,0x00,0x00,0x00,0x01,0x00,0x00,0x00,0x01,0x00,0x00,0x00,0x01,0x00,0x00,0x00,
    0x01,0x00,0x00,0x00,0x01,0x00,0x00,0x00,0x01,0x00,0x00,0x00,0x01,0x00,0x00,0x00,
    0x01,0x00,0x00,0x00,0x01,0x00,0x00,0x00,0x01,0x00,0x00,0x00,0x01,0x00,0x00,0x00,
    0x01,0x00,0x00,0x00,0x01,0x00,0x00,0x00,0x01,0x00,0x00,0x00,0x01,0x00,0x00,0x00,
    0x01,0x00,0x00,0x00,0x01,0x00,0x00,0x00,0x01,0x00,0x00,0x00,0x01,0x00,0x00,0x00,
    0x01,0x00,0x00,0x00,0x01,0x00,0x00,0x00,0x01,0x00,0x00,0x00,0x01,0x00,0x00,0x00,
    0x01,0x00,0x00,0x00,0x01,0x00,0x00,0x00,0x01,0x00,0x00,0x00,0x01,0x00,0x00,0x00,
    0x01,0x00,0x00,0x00,0x01,0x00,0x00,0x00,0x01,0x00,0x00,0x00,0x01,0x00,0x00,0x00,
    0x01,0x00,0x00,0x00,0x01,0x00,0x00,0x00,0x01,0x00,0x00,0x00,0x01,0x00,0x00,0x00,
    0x01,0x00,0x00,0x00,0x01,0x00,0x00,0x00,0x01,0x00,0x00,0x00,0x01,0x00,0x00,0x00,
    0x01,0x00,0x00,0x00,0x01,0x00,0x00,0x00,0x01,0x00,0x00,0x00,0x01,0x00,0x00,0x00,
    0x01,0x00,0x00,0x00,0x01,0x00,0x00,0x00,0x01,0x00,0x00,0x00,0x01,0x00,0x00,0x00,
    0x01,0x00,0x00,0x00,0x01,0x00,0x00,0x00,0x01,0x00,0x00,0x00,0x01,0x00,0x00,0x00,
    0x01,0x00,0x00,0x00,0x01,0x00,0x00,0x00,0x01,0x00,0x00,0x00,0x01,0x00,0x00,0x00,
    0x01,0x00,0x00,0x00,0x01,0x00,0x00,0x00,0x01,0x00,0x00,0x00,0x01,0x00,0x00,0x00,
    0x01,0x00,0x00,0x00,0x01,0x00,0x00,0x00,0x01,0x00,0x00,0x00,0x01,0x00,0x00,0x00,
    0x01,0x00,0x00,0x00,0x01,0x00,0x00,0x00,0x01,0x00,0x00,0x00,0x01,0x00,0x00,0x00,
    0x01,0x00,0x00,0x00,0x01,0x00,0x00,0x00,0x01,0x00,0x00,0x00,0x01,0x00,0x00,0x00,
    0x01,0x00,0x00,0x00,0x01,0x00,0x00,0x00,0x01,0x00,0x00,0x00,0x01,0x00,0x00,0x00,
    0x01,0x00,0x00,0x00,0x01,0x00,0x00,0x00,0x01,0x00,0x00,0x00,0x01,0x00,0x00,0x00,
    0x01,0x00,0x00,0x00,0x01,0x00,0x00,0x00,0x01,0x00,0x00,0x00,0x01,0x00,0x00,0x00,
    0x01,0x00,0x00,0x00,0x01,0x00,0x00,0x00,0x01,0x00,0x00,0x00,0x01,0x00,0x00,0x00,
    0x01,0x00,0x00,0x00,0x01,0x00,0x00,0x00,0x01,0x00,0x00,0x00,0x01,0x00,0x00,0x00,
    0x01,0x00,0x00,0x00,0x01,0x00,0x00,0x00,0x01,0x00,0x00,0x00,0x01,0x00,0x00,0x00,
    0x01,0x00,0x00,0x00,0x01,0x00,0x00,0x00,0x01,0x00,0x00,0x00,0x01,0x00,0x00,0x00,
    0x01,0x00,0x00,0x00,0x01,0x00,0x00,0x00,0x01,0x00,0x00,0x00,0x01,0x00,0x00,0x00,
    0x01,0x00,0x00,0x00,0x01,0x00,0x00,0x00,0x01,0x00,0x00,0x00,0x01,0x00,0x00,0x00,
    0x01,0x00,0x00,0x00,0x01,0x00,0x00,0x00,0x01,0x00,0x00,0x00,0x01,0x00,0x00,0x00,
    0x01,0x00,0x00,0x00,0x01,0x00,0x00,0x00,0x01,0x00,0x00,0x00,0x01,0x00,0x00,0x00,
    0x01,0x00,0x00,0x00,0x01,0x00,0x00,0x00,0x01,0x00,0x00,0x00,0x01,0x00,0x00,0x00,
    0x01,0x00,0x00,0x00,0x01,0x00,0x00,0x00,0x01,0x00,0x00,0x00,0x01,0x00,0x00,0x00,
    0x01,0x00,0x00,0x00,0x01,0x00,0x00,0x00,0x01,0x00,0x00,0x00,0x01,0x00,0x00,0x00,
    0x01,0x00,0x00,0x00,0x01,0x00,0x00,0x00,0x01,0x00,0x00,0x00,0x01,0x00,0x00,0x00,
    0x01,0x00,0x00,0x00,0x01,0x00,0x00,0x00,0x01,0x00,0x00,0x00,0x01,0x00,0x00,0x00,
    0x01,0x00,0x00,0x00,0x01,0x00,0x00,0x00,0x01,0x00,0x00,0x00,0x01,0x00,0x00,0x00,
    0x01,0x00,0x00,0x00,0x01,0x00,0x00,0x00,0x01,0x00,0x00,0x00,0x01,0x00,0x00,0x00,
    0x01,0x00,0x00,0x00,0x01,0x00,0x00,0x00,0x01,0x00,0x00,0x00,0x01,0x00,0x00,0x00,
    0x01,0x00,0x00,0x00,0x01,0x00,0x00,0x00,0x01,0x00,0x00,0x00,0x01,0x00,0x00,0x00,
    0x01,0x00,0x00,0x00,0x01,0x00,0x00,0x00,0x01,0x00,0x00,0x00,0x01,0x00,0x00,0x00,
    0x01,0x00,0x00,0x00,0x01,0x00,0x00,0x00,0x01,0x00,0x00,0x00,0x01,0x00,0x00,0x00,
    0x01,0x00,0x00,0x00,0x01,0x00,0x00,0x00,0x01,0x00,0x00,0x00,0x01,0x00,0x00,0x00,
    0x01,0x00,0x00,0x00,0x01,0x00,0x00,0x00,0x01,0x00,0x00,0x00,0x01,0x00,0x00,0x00,
    0x01,0x00,0x00,0x00,0x01,0x00,0x00,0x00,0x01,0x00,0x00,0x00,0x01,0x00,0x00,0x00,
    0x01,0x00,0x00,0x00,0x01,0x00,0x00,0x00,0x01,0x00,0x00,0x00,0x01,0x00,0x00,0x00,
    0x01,0x00,0x00,0x00,0x01,0x00,0x00,0x00,0x01,0x00,0x00,0x00,0x01,0x00,0x00,0x00,
    0x01,0x00,0x00,0x00,0x01,0x00,0x00,0x00,0x01,0x00,0x00,0x00,0x01,0x00,0x00,0x00,
    0x01,0x00,0x00,0x00,0x01,0x00,0x00,0x00,0x01,0x00,0x00,0x00,0x01,0x00,0x00,0x00,
    0x01,0x00,0x00,0x00,0x01,0x00,0x00,0x00,0x01,0x00,0x00,0x00,0x01,0x00,0x00,0x00,
    0x01,0x00,0x00,0x00,0x01,0x00,0x00,0x00,0x01,0x00,0x00,0x00,0x01,0x00,0x00,0x00,
    0x01,0x00,0x00,0x00,0x01,0x00,0x00,0x00,0x01,0x00,0x00,0x00,0x01,0x00,0x00,0x00,
    0x01,0x00,0x00,0x00,0x01,0x00,0x00,0x00,0x01,0x00,0x00,0x00,0x01,0x00,0x00,0x00,
    0x01,0x00,0x00,0x00,0x01,0x00,0x00,0x00,0x01,0x00,0x00,0x00,0x01,0x00,0x00,0x00,
    0x01,0x00,0x00,0x00,0x01,0x00,0x00,0x00,0x01,0x00,0x00,0x00,0x01,0x00,0x00,0x00,
    0x01,0x00,0x00,0x00,0x01,0x00,0x00,0x00,0x01,0x00,0x00,0x00,0x01,0x00,0x00,0x00,
    0x01,0x00,0x00,0x00,0x01,0x00,0x00,0x00,0x01,0x00,0x00,0x00,0x01,0x00,0x00,0x00,
    0x01,0x00,0x00,0x00,0x01,0x00,0x00,0x00,0x01,0x00,0x00,0x00,0x01,0x00,0x00,0x00,
    0x01,0x00,0x00,0x00,0x01,0x00,0x00,0x00,0x01,0x00,0x00,0x00,0x01,0x00,0x00,0x00,
    0x01,0x00,0x00,0x00,0x01,0x00,0x00,0x00,0x01,0x00,0x00,0x00,0x01,0x00,0x00,0x00,
    0x01,0x00,0x00,0x00,0x01,0x00,0x00,0x00,0x01,0x00,0x00,0x00,0x01,0x00,0x00,0x00,
    0x01,0x00,0x00,0x00,0x01,0x00,0x00,0x00,0x01,0x00,0x00,0x00,0x01,0x00,0x00,0x00,
    0x01,0x00,0x00,0x00,0x01,0x00,0x00,0x00,0x01,0x00,0x00,0x00,0x01,0x00,0x00,0x00,
    0x01,0x00,0x00,0x00,0x01,0x00,0x00,0x00,0x01,0x00,0x00,0x00,0x01,0x00,0x00,0x00,
    0x01,0x00,0x00,0x00,0x01,0x00,0x00,0x00,0x01,0x00,0x00,0x00,0x01,0x00,0x00,0x00,
    0x01,0x00,0x00,0x00,0x01,0x00,0x00,0x00,0x01,0x00,0x00,0x00,0x01,0x00,0x00,0x00,
    0x01,0x00,0x00,0x00,0x01,0x00,0x00,0x00,0x01,0x00,0x00,0x00,0x01,0x00,0x00,0x00,
    0x01,0x00,0x00,0x00,0x01,0x00,0x00,0x00,0x01,0x00,0x00,0x00,0x01,0x00,0x00,0x00,
    0x01,0x00,0x00,0x00,0x01,0x00,0x00,0x00,0x01,0x00,0x00,0x00,0x01,0x00,0x00,0x00,
    0x01,0x00,0x00,0x00,0x01,0x00,0x00,0x00,0x01,0x00,0x00,0x00,0x01,0x00,0x00,0x00,
    0x01,0x00,0x00,0x00,0x01,0x00,0x00,0x00,0x01,0x00,0x00,0x00,0x01,0x00,0x00,0x00,
    0x01,0x00,0x00,0x00,0x01,0x00,0x00,0x00,0x01,0x00,0x00,0x00,0x01,0x00,0x00,0x00,
    0x01,0x00,0x00,0x00,0x01,0x00,0x00,0x00,0x01,0x00,0x00,0x00,0x01,0x00,0x00,0x00,
    0x01,0x00,0x00,0x00,0x01,0x00,0x00,0x00,0x01,0x00,0x00,0x00,0x01,0x00,0x00,0x00,
    0x01,0x00,0x00,0x00,0x01,0x00,0x00,0x00,0x01,0x00,0x00,0x00,0x01,0x00,0x00,0x00,
    0x01,0x00,0x00,0x00,0x01,0x00,0x00,0x00,0x01,0x00,0x00,0x00,0x01,0x00,0x00,0x00,
    0x01,0x00,0x00,0x00,0x01,0x00,0x00,0x00,0x01,0x00,0x00,0x00,0x01,0x00,0x00,0x00,
    0x01,0x00,0x00,0x00,0x01,0x00,0x00,0x00,0x01,0x00,0x00,0x00,0x01,0x00,0x00,0x00,
    0x01,0x00,0x00,0x00,0x01,0x00,0x00,0x00,0x01,0x00,0x00,0x00,0x01,0x00,0x00,0x00,
    0x01,0x00,0x00,0x00,0x01,0x00,0x00,0x00,0x01,0x00,0x00,0x00,0x01,0x00,0x00,0x00,
    0x01,0x00,0x00,0x00,0x01,0x00,0x00,0x00,0x01,0x00,0x00,0x00,0x01,0x00,0x00,0x00,
    0x01,0x00,0x00,0x00,0x01,0x00,0x00,0x00,0x01,0x00,0x00,0x00,0x01,0x00,0x00,0x00,
    0x01,0x00,0x00,0x00,0x01,0x00,0x00,0x00,0x01,0x00,0x00,0x00,0x01,0x00,0x00,0x00,
    0x01,0x00,0x00,0x00,0x01,0x00,0x00,0x00,0x01,0x00,0x00,0x00,0x01,0x00,0x00,0x00,
    0x01,0x00,0x00,0x00,0x01,0x00,0x00,0x00,0x01,0x00,0x00,0x00,0x01,0x00,0x00,0x00,
    0x01,0x00,0x00,0x00,0x01,0x00,0x00,0x00,0x01,0x00,0x00,0x00,0x01,0x00,0x00,0x00,
    0x01,0x00,0x00,0x00,0x01,0x00,0x00,0x00,0x01,0x00,0x00,0x00,0x01,0x00,0x00,0x00,
    0x01,0x00,0x00,0x00,0x01,0x00,0x00,0x00,0x01,0x00,0x00,0x00,0x01,0x00,0x00,0x00,
    0x01,0x00,0x00,0x00,0x01,0x00,0x00,0x00,0x01,0x00,0x00,0x00,0x01,0x00,0x00,0x00,
    0x01,0x00,0x00,0x00,0x01,0x00,0x00,0x00,0x01,0x00,0x00,0x00,0x01,0x00,0x00,0x00,
    0x01,0x00,0x00,0x00,0x01,0x00,0x00,0x00,0x01,0x00,0x00,0x00,0x01,0x00,0x00,0x00,
    0x01,0x00,0x00,0x00,0x01,0x00,0x00,0x00,0x01,0x00,0x00,0x00,0x01,0x00,0x00,0x00,
    0x01,0x00,0x00,0x00,0x01,0x00,0x00,0x00,0x01,0x00,0x00,0x00,0x01,0x00,0x00,0x00,
    0x01,0x00,0x00,0x00,0x01,0x00,0x00,0x00,0x01,0x00,0x00,0x00,0x01,0x00,0x00,0x00,
    0x01,0x00,0x00,0x00,0x01,0x00,0x00,0x00,0x01,0x00,0x00,0x00,0x01,0x00,0x00,0x00,
    0x01,0x00,0x00,0x00,0x01,0x00,0x00,0x00,0x01,0x00,0x00,0x00,0x01,0x00,0x00,0x00,
    0x01,0x00,0x00,0x00,0x01,0x00,0x00,0x00,0x01,0x00,0x00,0x00,0x01,0x00,0x00,0x00,
    0x01,0x00,0x00,0x00,0x01,0x00,0x00,0x00,0x01,0x00,0x00,0x00,0x01,0x00,0x00,0x00,
    0x01,0x00,0x00,0x00,0x01,0x00,0x00,0x00,0x01,0x00,0x00,0x00,0x01,0x00,0x00,0x00,
    0x01,0x00,0x00,0x00,0x01,0x00,0x00,0x00,0x01,0x00,0x00,0x00,0x01,0x00,0x00,0x00,
    0x01,0x00,0x00,0x00,0x01,0x00,0x00,0x00,0x01,0x00,0x00,0x00,0x01,0x00,0x00,0x00,
    0x01,0x00,0x00,0x00,0x01,0x00,0x00,0x00,0x01,0x00,0x00,0x00,0x01,0x00,0x00,0x00,
    0x01,0x00,0x00,0x00,0x01,0x00,0x00,0x00,0x01,0x00,0x00,0x00,0x01,0x00,0x00,0x00,
    0x01,0x00,0x00,0x00,0x01,0x00,0x00,0x00,0x01,0x00,0x00,0x00,0x01,0x00,0x00,0x00,
    0x01,0x00,0x00,0x00,0x01,0x00,0x00,0x00,0x01,0x00,0x00,0x00,0x01,0x00,0x00,0x00,
    0x01,0x00,0x00,0x00,0x01,0x00,0x00,0x00,0x01,0x00,0x00,0x00,0x01,0x00,0x00,0x00,
    0x01,0x00,0x00,0x00,0x01,0x00,0x00,0x00,0x01,0x00,0x00,0x00,0x01,0x00,0x00,0x00,
    0x01,0x00,0x00,0x00,0x01,0x00,0x00,0x00,0x01,0x00,0x00,0x00,0x01,0x00,0x00,0x00,
    0x01,0x00,0x00,0x00,0x01,0x00,0x00,0x00,0x01,0x00,0x00,0x00,0x01,0x00,0x00,0x00,
    0x01,0x00,0x00,0x00,0x01,0x00,0x00,0x00,0x01,0x00,0x00,0x00,0x01,0x00,0x00,0x00,
    0x01,0x00,0x00,0x00,0x01,0x00,0x00,0x00,0x01,0x00,0x00,0x00,0x01,0x00,0x00,0x00,
    0x01,0x00,0x00,0x00,0x01,0x00,0x00,0x00,0x01,0x00,0x00,0x00,0x01,0x00,0x00,0x00,
    0x01,0x00,0x00,0x00,0x01,0x00,0x00,0x00,0x01,0x00,0x00,0x00,0x01,0x00,0x00,0x00,
    0x01,0x00,0x00,0x00,0x01,0x00,0x00,0x00,0x01,0x00,0x00,0x00,0x01,0x00,0x00,0x00,
    0x01,0x00,0x00,0x00,0x01,0x00,0x00,0x00,0x01,0x00,0x00,0x00,0x01,0x00,0x00,0x00,
    0x01,0x00,0x00,0x00,0x01,0x00,0x00,0x00,0x01,0x00,0x00,0x00,0x01,0x00,0x00,0x00,
    0x01,0x00,0x00,0x00,0x01,0x00,0x00,0x00,0x01,0x00,0x00,0x00,0x01,0x00,0x00,0x00,
    0x01,0x00,0x00,0x00,0x01,0x00,0x00,0x00,0x01,0x00,0x00,0x00,0x01,0x00,0x00,0x00,
    0x01,0x00,0x00,0x00,0x01,0x00,0x00,0x00,0x01,0x00,0x00,0x00,0x01,0x00,0x00,0x00,
    0x01,0x00,0x00,0x00,0x01,0x00,0x00,0x00,0x01,0x00,0x00,0x00,0x01,0x00,0x00,0x00,
    0x01,0x00,0x00,0x00,0x01,0x00,0x00,0x00,0x01,0x00,0x00,0x00,0x01,0x00,0x00,0x00,
    0x01,0x00,0x00,0x00,0x01,0x00,0x00,0x00,0x01,0x00,0x06,0x00,0x00,0x00,0x6e,0x32,
    0x62,0x5f,0x57,0x32,0x02,0x00,0x00,0x00,0x00,0x01,0x00,0x00,0x00,0x01,0x00,0x00,
    0x01,0x00,0x00,0x00,0x00,0x01,0x00,0x00,0x00,0x00,0x00,0x00,0x01,0x01,0x00,0x00,
    0x02,0x02,0x00,0x00,0x03,0x03,0x00,0x00,0x04,0x04,0x00,0x00,0x05,0x05,0x00,0x00,
    0x06,0x06,0x00,0x00,0x07,0x07,0x00,0x00,0x08,0x08,0x00,0x00,0x09,0x09,0x00,0x00,
    0x0a,0x0a,0x00,0x00,0x0b,0x0b,0x00,0x00,0x0c,0x0c,0x00,0x00,0x0d,0x0d,0x00,0x00,
    0x0e,0x0e,0x00,0x00,0x0f,0x0f,0x00,0x00,0x10,0x10,0x00,0x00,0x11,0x11,0x00,0x00,
    0x12,0x12,0x00,0x00,0x13,0x13,0x00,0x00,0x14,0x14,0x00,0x00,0x15,0x15,0x00,0x00,
    0x16,0x16,0x00,0x00,0x17,0x17,0x00,0x00,0x18,0x18,0x00,0x00,0x19,0x19,0x00,0x00,
    0x1a,0x1a,0x00,0x00,0x1b,0x1b,0x00,0x00,0x1c,0x1c,0x00,0x00,0x1d,0x1d,0x00,0x00,
    0x1e,0x1e,0x00,0x00,0x1f,0x1f,0x00,0x00,0x20,0x20,0x00,0x00,0x21,0x21,0x00,0x00,
    0x22,0x22,0x00,0x00,0x23,0x23,0x00,0x00,0x24,0x24,0x00,0x00,0x25,0x25,0x00,0x00,
    0x26,0x26,0x00,0x00,0x27,0x27,0x00,0x00,0x28,0x28,0x00,0x00,0x29,0x29,0x00,0x00,
    0x2a,0x2a,0x00,0x00,0x2b,0x2b,0x00,0x00,0x2c,0x2c,0x00,0x00,0x2d,0x2d,0x00,0x00,
    0x2e,0x2e,0x00,0x00,0x2f,0x2f,0x00,0x00,0x30,0x30,0x00,0x00,0x31,0x31,0x00,0x00,
    0x32,0x32,0x00,0x00,0x33,0x33,0x00,0x00,0x34,0x34,0x00,0x00,0x35,0x35,0x00,0x00,
    0x36,0x36,0x00,0x00,0x37,0x37,0x00,0x00,0x38,0x38,0x00,0x00,0x39,0x39,0x00,0x00,
    0x3a,0x3a,0x00,0x00,0x3b,0x3b,0x00,0x00,0x3c,0x3c,0x00,0x00,0x3d,0x3d,0x00,0x00,
    0x3e,0x3e,0x00,0x00,0x3f,0x3f,0x00,0x00,0x40,0x40,0x00,0x00,0x41,0x41,0x00,0x00,
    0x42,0x42,0x00,0x00,0x43,0x43,0x00,0x00,0x44,0x44,0x00,0x00,0x45,0x45,0x00,0x00,
    0x46,0x46,0x00,0x00,0x47,0x47,0x00,0x00,0x48,0x48,0x00,0x00,0x49,0x49,0x00,0x00,
    0x4a,0x4a,0x00,0x00,0x4b,0x4b,0x00,0x00,0x4c,0x4c,0x00,0x00,0x4d,0x4d,0x00,0x00,
    0x4e,0x4e,0x00,0x00,0x4f,0x4f,0x00,0x00,0x50,0x50,0x00,0x00,0x51,0x51,0x00,0x00,
    0x52,0x52,0x00,0x00,0x53,0x53,0x00,0x00,0x54,0x54,0x00,0x00,0x55,0x55,0x00,0x00,
    0x56,0x56,0x00,0x00,0x57,0x57,0x00,0x00,0x58,0x58,0x00,0x00,0x59,0x59,0x00,0x00,
    0x5a,0x5a,0x00,0x00,0x5b,0x5b,0x00,0x00,0x5c,0x5c,0x00,0x00,0x5d,0x5d,0x00,0x00,
    0x5e,0x5e,0x00,0x00,0x5f,0x5f,0x00,0x00,0x60,0x60,0x00,0x00,0x61,0x61,0x00,0x00,
    0x62,0x62,0x00,0x00,0x63,0x63,0x00,0x00,0x64,0x64,0x00,0x00,0x65,0x65,0x00,0x00,
    0x66,0x66,0x00,0x00,0x67,0x67,0x00,0x00,0x68,0x68,0x00,0x00,0x69,0x69,0x00,0x00,
    0x6a,0x6a,0x00,0x00,0x6b,0x6b,0x00,0x00,0x6c,0x6c,0x00,0x00,0x6d,0x6d,0x00,0x00,
    0x6e,0x6e,0x00,0x00,0x6f,0x6f,0x00,0x00,0x70,0x70,0x00,0x00,0x71,0x71,0x00,0x00,
    0x72,0x72,0x00,0x00,0x73,0x73,0x00,0x00,0x74,0x74,0x00,0x00,0x75,0x75,0x00,0x00,
    0x76,0x76,0x00,0x00,0x77,0x77,0x00,0x00,0x78,0x78,0x00,0x00,0x79,0x79,0x00,0x00,
    0x7a,0x7a,0x00,0x00,0x7b,0x7b,0x00,0x00,0x7c,0x7c,0x00,0x00,0x7d,0x7d,0x00,0x00,
    0x7e,0x7e,0x00,0x00,0x7f,0x7f,0x00,0x00,0x80,0x80,0x00,0x00,0x81,0x81,0x00,0x00,
    0x82,0x82,0x00,0x00,0x83,0x83,0x00,0x00,0x84,0x84,0x00,0x00,0x85,0x85,0x00,0x00,
    0x86,0x86,0x00,0x00,0x87,0x87,0x00,0x00,0x88,0x88,0x00,0x00,0x89,0x89,0x00,0x00,
    0x8a,0x8a,0x00,0x00,0x8b,0x8b,0x00,0x00,0x8c,0x8c,0x00,0x00,0x8d,0x8d,0x00,0x00,
    0x8e,0x8e,0x00,0x00,0x8f,0x8f,0x00,0x00,0x90,0x90,0x00,0x00,0x91,0x91,0x00,0x00,
    0x92,0x92,0x00,0x00,0x93,0x93,0x00,0x00,0x94,0x94,0x00,0x00,0x95,0x95,0x00,0x00,
    0x96,0x96,0x00,0x00,0x97,0x97,0x00,0x00,0x98,0x98,0x00,0x00,0x99,0x99,0x00,0x00,
    0x9a,0x9a,0x00,0x00,0x9b,0x9b,0x00,0x00,0x9c,0x9c,0x00,0x00,0x9d,0x9d,0x00,0x00,
    0x9e,0x9e,0x00,0x00,0x9f,0x9f,0x00,0x00,0xa0,0xa0,0x00,0x00,0xa1,0xa1,0x00,0x00,
    0xa2,0xa2,0x00,0x00,0xa3,0xa3,0x00,0x00,0xa4,0xa4,0x00,0x00,0xa5,0xa5,0x00,0x00,
    0xa6,0xa6,0x00,0x00,0xa7,0xa7,0x00,0x00,0xa8,0xa8,0x00,0x00,0xa9,0xa9,0x00,0x00,
    0xaa,0xaa,0x00,0x00,0xab,0xab,0x00,0x00,0xac,0xac,0x00,0x00,0xad,0xad,0x00,0x00,
    0xae,0xae,0x00,0x00,0xaf,0xaf,0x00,0x00,0xb0,0xb0,0x00,0x00,0xb1,0xb1,0x00,0x00,
    0xb2,0xb2,0x00,0x00,0xb3,0xb3,0x00,0x00,0xb4,0xb4,0x00,0x00,0xb5,0xb5,0x00,0x00,
    0xb6,0xb6,0x00,0x00,0xb7,0xb7,0x00,0x00,0xb8,0xb8,0x00,0x00,0xb9,0xb9,0x00,0x00,
    0xba,0xba,0x00,0x00,0xbb,0xbb,0x00,0x00,0xbc,0xbc,0x00,0x00,0xbd,0xbd,0x00,0x00,
    0xbe,0xbe,0x00,0x00,0xbf,0xbf,0x00,0x00,0xc0,0xc0,0x00,0x00,0xc1,0xc1,0x00,0x00,
    0xc2,0xc2,0x00,0x00,0xc3,0xc3,0x00,0x00,0xc4,0xc4,0x00,0x00,0xc5,0xc5,0x00,0x00,
    0xc6,0xc6,0x00,0x00,0xc7,0xc7,0x00,0x00,0xc8,0xc8,0x00,0x00,0xc9,0xc9,0x00,0x00,
    0xca,0xca,0x00,0x00,0xcb,0xcb,0x00,0x00,0xcc,0xcc,0x00,0x00,0xcd,0xcd,0x00,0x00,
    0xce,0xce,0x00,0x00,0xcf,0xcf,0x00,0x00,0xd0,0xd0,0x00,0x00,0xd1,0xd1,0x00,0x00,
    0xd2,0xd2,0x00,0x00,0xd3,0xd3,0x00,0x00,0xd4,0xd4,0x00,0x00,0xd5,0xd5,0x00,0x00,
    0xd6,0xd6,0x00,0x00,0xd7,0xd7,0x00,0x00,0xd8,0xd8,0x00,0x00,0xd9,0xd9,0x00,0x00,
    0xda,0xda,0x00,0x00,0xdb,0xdb,0x00,0x00,0xdc,0xdc,0x00,0x00,0xdd,0xdd,0x00,0x00,
    0xde,0xde,0x00,0x00,0xdf,0xdf,0x00,0x00,0xe0,0xe0,0x00,0x00,0xe1,0xe1,0x00,0x00,
    0xe2,0xe2,0x00,0x00,0xe3,0xe3,0x00,0x00,0xe4,0xe4,0x00,0x00,0xe5,0xe5,0x00,0x00,
    0xe6,0xe6,0x00,0x00,0xe7,0xe7,0x00,0x00,0xe8,0xe8,0x00,0x00,0xe9,0xe9,0x00,0x00,
    0xea,0xea,0x00,0x00,0xeb,0xeb,0x00,0x00,0xec,0xec,0x00,0x00,0xed,0xed,0x00,0x00,
    0xee,0xee,0x00,0x00,0xef,0xef,0x00,0x00,0xf0,0xf0,0x00,0x00,0xf1,0xf1,0x00,0x00,
    0xf2,0xf2,0x00,0x00,0xf3,0xf3,0x00,0x00,0xf4,0xf4,0x00,0x00,0xf5,0xf5,0x00,0x00,
    0xf6,0xf6,0x00,0x00,0xf7,0xf7,0x00,0x00,0xf8,0xf8,0x00,0x00,0xf9,0xf9,0x00,0x00,
    0xfa,0xfa,0x00,0x00,0xfb,0xfb,0x00,0x00,0xfc,0xfc,0x00,0x00,0xfd,0xfd,0x00,0x00,
    0xfe,0xfe,0x00,0x00,0xff,0xff,0x00,0x00,0x00,0x00,0x01,0x00,0x00,0x00,0x01,0x00,
    0x00,0x00,0x01,0x00,0x00,0x00,0x01,0x00,0x00,0x00,0x01,0x00,0x00,0x00,0x01,0x00,
    0x00,0x00,0x01,0x00,0x00,0x00,0x01,0x00,0x00,0x00,0x01,0x00,0x00,0x00,0x01,0x00,
    0x00,0x00,0x01,0x00,0x00,0x00,0x01,0x00,0x00,0x00,0x01,0x00,0x00,0x00,0x01,0x00,
    0x00,0x00,0x01,0x00,0x00,0x00,0x01,0x00,0x00,0x00,0x01,0x00,0x00,0x00,0x01,0x00,
    0x00,0x00,0x01,0x00,0x00,0x00,0x01,0x00,0x00,0x00,0x01,0x00,0x00,0x00,0x01,0x00,
    0x00,0x00,0x01,0x00,0x00,0x00,0x01,0x00,0x00,0x00,0x01,0x00,0x00,0x00,0x01,0x00,
    0x00,0x00,0x01,0x00,0x00,0x00,0x01,0x00,0x00,0x00,0x01,0x00,0x00,0x00,0x01,0x00,
    0x00,0x00,0x01,0x00,0x00,0x00,0x01,0x00,0x00,0x00,0x01,0x00,0x00,0x00,0x01,0x00,
    0x00,0x00,0x01,0x00,0x00,0x00,0x01,0x00,0x00,0x00,0x01,0x00,0x00,0x00,0x01,0x00,
    0x00,0x00,0x01,0x00,0x00,0x00,0x01,0x00,0x00,0x00,0x01,0x00,0x00,0x00,0x01,0x00,
    0x00,0x00,0x01,0x00,0x00,0x00,0x01,0x00,0x00,0x00,0x01,0x00,0x00,0x00,0x01,0x00,
    0x00,0x00,0x01,0x00,0x00,0x00,0x01,0x00,0x00,0x00,0x01,0x00,0x00,0x00,0x01,0x00,
    0x00,0x00,0x01,0x00,0x00,0x00,0x01,0x00,0x00,0x00,0x01,0x00,0x00,0x00,0x01,0x00,
    0x00,0x00,0x01,0x00,0x00,0x00,0x01,0x00,0x00,0x00,0x01,0x00,0x00,0x00,0x01,0x00,
    0x00,0x00,0x01,0x00,0x00,0x00,0x01,0x00,0x00,0x00,0x01,0x00,0x00,0x00,0x01,0x00,
    0x00,0x00,0x01,0x00,0x00,0x00,0x01,0x00,0x00,0x00,0x01,0x00,0x00,0x00,0x01,0x00,
    0x00,0x00,0x01,0x00,0x00,0x00,0x01,0x00,0x00,0x00,0x01,0x00,0x00,0x00,0x01,0x00,
    0x00,0x00,0x01,0x00,0x00,0x00,0x01,0x00,0x00,0x00,0x01,0x00,0x00,0x00,0x01,0x00,
    0x00,0x00,0x01,0x00,0x00,0x00,0x01,0x00,0x00,0x00,0x01,0x00,0x00,0x00,0x01,0x00,
    0x00,0x00,0x01,0x00,0x00,0x00,0x01,0x00,0x00,0x00,0x01,0x00,0x00,0x00,0x01,0x00,
    0x00,0x00,0x01,0x00,0x00,0x00,0x01,0x00,0x00,0x00,0x01,0x00,0x00,0x00,0x01,0x00,
    0x00,0x00,0x01,0x00,0x00,0x00,0x01,0x00,0x00,0x00,0x01,0x00,0x00,0x00,0x01,0x00,
    0x00,0x00,0x01,0x00,0x00,0x00,0x01,0x00,0x00,0x00,0x01,0x00,0x00,0x00,0x01,0x00,
    0x00,0x00,0x01,0x00,0x00,0x00,0x01,0x00,0x00,0x00,0x01,0x00,0x00,0x00,0x01,0x00,
    0x00,0x00,0x01,0x00,0x00,0x00,0x01,0x00,0x00,0x00,0x01,0x00,0x00,0x00,0x01,0x00,
    0x00,0x00,0x01,0x00,0x00,0x00,0x01,0x00,0x00,0x00,0x01,0x00,0x00,0x00,0x01,0x00,
    0x00,0x00,0x01,0x00,0x00,0x00,0x01,0x00,0x00,0x00,0x01,0x00,0x00,0x00,0x01,0x00,
    0x00,0x00,0x01,0x00,0x00,0x00,0x01,0x00,0x00,0x00,0x01,0x00,0x00,0x00,0x01,0x00,
    0x00,0x00,0x01,0x00,0x00,0x00,0x01,0x00,0x00,0x00,0x01,0x00,0x00,0x00,0x01,0x00,
    0x00,0x00,0x01,0x00,0x00,0x00,0x01,0x00,0x00,0x00,0x01,0x00,0x00,0x00,0x01,0x00,
    0x00,0x00,0x01,0x00,0x00,0x00,0x01,0x00,0x00,0x00,0x01,0x00,0x00,0x00,0x01,0x00,
    0x00,0x00,0x01,0x00,0x00,0x00,0x01,0x00,0x00,0x00,0x01,0x00,0x00,0x00,0x01,0x00,
    0x00,0x00,0x01,0x00,0x00,0x00,0x01,0x00,0x00,0x00,0x01,0x00,0x00,0x00,0x01,0x00,
    0x00,0x00,0x01,0x00,0x00,0x00,0x01,0x00,0x00,0x00,0x01,0x00,0x00,0x00,0x01,0x00,
    0x00,0x00,0x01,0x00,0x00,0x00,0x01,0x00,0x00,0x00,0x01,0x00,0x00,0x00,0x01,0x00,
    0x00,0x00,0x01,0x00,0x00,0x00,0x01,0x00,0x00,0x00,0x01,0x00,0x00,0x00,0x01,0x00,
    0x00,0x00,0x01,0x00,0x00,0x00,0x01,0x00,0x00,0x00,0x01,0x00,0x00,0x00,0x01,0x00,
    0x00,0x00,0x01,0x00,0x00,0x00,0x01,0x00,0x00,0x00,0x01,0x00,0x00,0x00,0x01,0x00,
    0x00,0x00,0x01,0x00,0x00,0x00,0x01,0x00,0x00,0x00,0x01,0x00,0x00,0x00,0x01,0x00,
    0x00,0x00,0x01,0x00,0x00,0x00,0x01,0x00,0x00,0x00,0x01,0x00,0x00,0x00,0x01,0x00,
    0x00,0x00,0x01,0x00,0x00,0x00,0x01,0x00,0x00,0x00,0x01,0x00,0x00,0x00,0x01,0x00,
    0x00,0x00,0x01,0x00,0x00,0x00,0x01,0x00,0x00,0x00,0x01,0x00,0x00,0x00,0x01,0x00,
    0x00,0x00,0x01,0x00,0x00,0x00,0x01,0x00,0x00,0x00,0x01,0x00,0x00,0x00,0x01,0x00,
    0x00,0x00,0x01,0x00,0x00,0x00,0x01,0x00,0x00,0x00,0x01,0x00,0x00,0x00,0x01,0x00,
    0x00,0x00,0x01,0x00,0x00,0x00,0x01,0x00,0x00,0x00,0x01,0x00,0x00,0x00,0x01,0x00,
    0x00,0x00,0x01,0x00,0x00,0x00,0x01,0x00,0x00,0x00,0x01,0x00,0x00,0x00,0x01,0x00,
    0x00,0x00,0x01,0x00,0x00,0x00,0x01,0x00,0x00,0x00,0x01,0x00,0x00,0x00,0x01,0x00,
    0x00,0x00,0x01,0x00,0x00,0x00,0x01,0x00,0x00,0x00,0x01,0x00,0x00,0x00,0x01,0x00,
    0x00,0x00,0x01,0x00,0x00,0x00,0x01,0x00,0x00,0x00,0x01,0x00,0x00,0x00,0x01,0x00,
    0x00,0x00,0x01,0x00,0x00,0x00,0x01,0x00,0x00,0x00,0x01,0x00,0x00,0x00,0x01,0x00,
    0x00,0x00,0x01,0x00,0x00,0x00,0x01,0x00,0x00,0x00,0x01,0x00,0x00,0x00,0x01,0x00,
    0x00,0x00,0x01,0x00,0x00,0x00,0x01,0x00,0x00,0x00,0x01,0x00,0x00,0x00,0x01,0x00,
    0x00,0x00,0x01,0x00,0x00,0x00,0x01,0x00,0x00,0x00,0x01,0x00,0x00,0x00,0x01,0x00,
    0x00,0x00,0x01,0x00,0x00,0x00,0x01,0x00,0x00,0x00,0x01,0x00,0x00,0x00,0x01,0x00,
    0x00,0x00,0x01,0x00,0x00,0x00,0x01,0x00,0x00,0x00,0x01,0x00,0x00,0x00,0x01,0x00,
    0x00,0x00,0x01,0x00,0x00,0x00,0x01,0x00,0x00,0x00,0x01,0x00,0x00,0x00,0x01,0x00,
    0x00,0x00,0x01,0x00,0x00,0x00,0x01,0x00,0x00,0x00,0x01,0x00,0x00,0x00,0x01,0x00,
    0x00,0x00,0x01,0x00,0x00,0x00,0x01,0x00,0x00,0x00,0x01,0x00,0x00,0x00,0x01,0x00,
    0x00,0x00,0x01,0x00,0x00,0x00,0x01,0x00,0x00,0x00,0x01,0x00,0x00,0x00,0x01,0x00,
    0x00,0x00,0x01,0x00,0x00,0x00,0x01,0x00,0x00,0x00,0x01,0x00,0x00,0x00,0x01,0x00,
    0x00,0x00,0x01,0x00,0x00,0x00,0x01,0x00,0x00,0x00,0x01,0x00,0x00,0x00,0x01,0x00,
    0x00,0x00,0x01,0x00,0x00,0x00,0x01,0x00,0x00,0x00,0x01,0x00,0x00,0x00,0x01,0x00,
    0x00,0x00,0x01,0x00,0x00,0x00,0x01,0x00,0x00,0x00,0x01,0x00,0x00,0x00,0x01,0x00,
    0x00,0x00,0x01,0x00,0x00,0x00,0x01,0x00,0x0a,0x00,0x00,0x00,0x6e,0x69,0x62,0x5f,
    0x61,0x64,0x64,0x5f,0x57,0x31,0x02,0x00,0x00,0x00,0x22,0x00,0x00,0x00,0x00,0x02,
    0x00,0x00,0x01,0x00,0x00,0x00,0x00,0x06,0x00,0x00,0x00,0x00,0x00,0x00,0x01,0x00,
    0x00,0x00,0x02,0x00,0x00,0x00,0x03,0x00,0x00,0x00,0x04,0x00,0x00,0x00,0x05,0x00,
    0x00,0x00,0x06,0x00,0x00,0x00,0x07,0x00,0x00,0x00,0x08,0x00,0x00,0x00,0x09,0x00,
    0x00,0x00,0x0a,0x00,0x00,0x00,0x0b,0x00,0x00,0x00,0x0c,0x00,0x00,0x00,0x0d,0x00,
    0x00,0x00,0x0e,0x00,0x00,0x00,0x0f,0x00,0x00,0x00,0x10,0x00,0x00,0x00,0x11,0x00,
    0x00,0x00,0x12,0x00,0x00,0x00,0x13,0x00,0x00,0x00,0x14,0x00,0x00,0x00,0x15,0x00,
    0x00,0x00,0x16,0x00,0x00,0x00,0x17,0x00,0x00,0x00,0x18,0x00,0x00,0x00,0x19,0x00,
    0x00,0x00,0x1a,0x00,0x00,0x00,0x1b,0x00,0x00,0x00,0x1c,0x00,0x00,0x00,0x1d,0x00,
    0x00,0x00,0x1e,0x00,0x00,0x00,0x1f,0x00,0x00,0x00,0x20,0x02,0x00,0x00,0x21,0x02,
    0x00,0x00,0x22,0x02,0x00,0x00,0x23,0x02,0x00,0x00,0x24,0x02,0x00,0x00,0x25,0x02,
    0x00,0x00,0x26,0x02,0x00,0x00,0x27,0x02,0x00,0x00,0x28,0x02,0x00,0x00,0x29,0x02,
    0x00,0x00,0x2a,0x02,0x00,0x00,0x2b,0x02,0x00,0x00,0x2c,0x02,0x00,0x00,0x2d,0x02,
    0x00,0x00,0x2e,0x02,0x00,0x00,0x2f,0x02,0x00,0x00,0x30,0x02,0x00,0x00,0x31,0x02,
    0x00,0x00,0x32,0x02,0x00,0x00,0x33,0x02,0x00,0x00,0x34,0x02,0x00,0x00,0x35,0x02,
    0x00,0x00,0x36,0x02,0x00,0x00,0x37,0x02,0x00,0x00,0x38,0x02,0x00,0x00,0x39,0x02,
    0x00,0x00,0x3a,0x02,0x00,0x00,0x3b,0x02,0x00,0x00,0x3c,0x02,0x00,0x00,0x3d,0x02,
    0x00,0x00,0x3e,0x02,0x00,0x00,0x3f,0x02,0x00,0x00,0x40,0x04,0x00,0x00,0x41,0x04,
    0x00,0x00,0x42,0x04,0x00,0x00,0x43,0x04,0x00,0x00,0x44,0x04,0x00,0x00,0x45,0x04,
    0x00,0x00,0x46,0x04,0x00,0x00,0x47,0x04,0x00,0x00,0x48,0x04,0x00,0x00,0x49,0x04,
    0x00,0x00,0x4a,0x04,0x00,0x00,0x4b,0x04,0x00,0x00,0x4c,0x04,0x00,0x00,0x4d,0x04,
    0x00,0x00,0x4e,0x04,0x00,0x00,0x4f,0x04,0x00,0x00,0x50,0x04,0x00,0x00,0x51,0x04,
    0x00,0x00,0x52,0x04,0x00,0x00,0x53,0x04,0x00,0x00,0x54,0x04,0x00,0x00,0x55,0x04,
    0x00,0x00,0x56,0x04,0x00,0x00,0x57,0x04,0x00,0x00,0x58,0x04,0x00,0x00,0x59,0x04,
    0x00,0x00,0x5a,0x04,0x00,0x00,0x5b,0x04,0x00,0x00,0x5c,0x04,0x00,0x00,0x5d,0x04,
    0x00,0x00,0x5e,0x04,0x00,0x00,0x5f,0x04,0x00,0x00,0x60,0x06,0x00,0x00,0x61,0x06,
    0x00,0x00,0x62,0x06,0x00,0x00,0x63,0x06,0x00,0x00,0x64,0x06,0x00,0x00,0x65,0x06,
    0x00,0x00,0x66,0x06,0x00,0x00,0x67,0x06,0x00,0x00,0x68,0x06,0x00,0x00,0x69,0x06,
    0x00,0x00,0x6a,0x06,0x00,0x00,0x6b,0x06,0x00,0x00,0x6c,0x06,0x00,0x00,0x6d,0x06,
    0x00,0x00,0x6e,0x06,0x00,0x00,0x6f,0x06,0x00,0x00,0x70,0x06,0x00,0x00,0x71,0x06,
    0x00,0x00,0x72,0x06,0x00,0x00,0x73,0x06,0x00,0x00,0x74,0x06,0x00,0x00,0x75,0x06,
    0x00,0x00,0x76,0x06,0x00,0x00,0x77,0x06,0x00,0x00,0x78,0x06,0x00,0x00,0x79,0x06,
    0x00,0x00,0x7a,0x06,0x00,0x00,0x7b,0x06,0x00,0x00,0x7c,0x06,0x00,0x00,0x7d,0x06,
    0x00,0x00,0x7e,0x06,0x00,0x00,0x7f,0x06,0x00,0x00,0x80,0x08,0x00,0x00,0x81,0x08,
    0x00,0x00,0x82,0x08,0x00,0x00,0x83,0x08,0x00,0x00,0x84,0x08,0x00,0x00,0x85,0x08,
    0x00,0x00,0x86,0x08,0x00,0x00,0x87,0x08,0x00,0x00,0x88,0x08,0x00,0x00,0x89,0x08,
    0x00,0x00,0x8a,0x08,0x00,0x00,0x8b,0x08,0x00,0x00,0x8c,0x08,0x00,0x00,0x8d,0x08,
    0x00,0x00,0x8e,0x08,0x00,0x00,0x8f,0x08,0x00,0x00,0x90,0x08,0x00,0x00,0x91,0x08,
    0x00,0x00,0x92,0x08,0x00,0x00,0x93,0x08,0x00,0x00,0x94,0x08,0x00,0x00,0x95,0x08,
    0x00,0x00,0x96,0x08,0x00,0x00,0x97,0x08,0x00,0x00,0x98,0x08,0x00,0x00,0x99,0x08,
    0x00,0x00,0x9a,0x08,0x00,0x00,0x9b,0x08,0x00,0x00,0x9c,0x08,0x00,0x00,0x9d,0x08,
    0x00,0x00,0x9e,0x08,0x00,0x00,0x9f,0x08,0x00,0x00,0xa0,0x0a,0x00,0x00,0xa1,0x0a,
    0x00,0x00,0xa2,0x0a,0x00,0x00,0xa3,0x0a,0x00,0x00,0xa4,0x0a,0x00,0x00,0xa5,0x0a,
    0x00,0x00,0xa6,0x0a,0x00,0x00,0xa7,0x0a,0x00,0x00,0xa8,0x0a,0x00,0x00,0xa9,0x0a,
    0x00,0x00,0xaa,0x0a,0x00,0x00,0xab,0x0a,0x00,0x00,0xac,0x0a,0x00,0x00,0xad,0x0a,
    0x00,0x00,0xae,0x0a,0x00,0x00,0xaf,0x0a,0x00,0x00,0xb0,0x0a,0x00,0x00,0xb1,0x0a,
    0x00,0x00,0xb2,0x0a,0x00,0x00,0xb3,0x0a,0x00,0x00,0xb4,0x0a,0x00,0x00,0xb5,0x0a,
    0x00,0x00,0xb6,0x0a,0x00,0x00,0xb7,0x0a,0x00,0x00,0xb8,0x0a,0x00,0x00,0xb9,0x0a,
    0x00,0x00,0xba,0x0a,0x00,0x00,0xbb,0x0a,0x00,0x00,0xbc,0x0a,0x00,0x00,0xbd,0x0a,
    0x00,0x00,0xbe,0x0a,0x00,0x00,0xbf,0x0a,0x00,0x00,0xc0,0x0c,0x00,0x00,0xc1,0x0c,
    0x00,0x00,0xc2,0x0c,0x00,0x00,0xc3,0x0c,0x00,0x00,0xc4,0x0c,0x00,0x00,0xc5,0x0c,
    0x00,0x00,0xc6,0x0c,0x00,0x00,0xc7,0x0c,0x00,0x00,0xc8,0x0c,0x00,0x00,0xc9,0x0c,
    0x00,0x00,0xca,0x0c,0x00,0x00,0xcb,0x0c,0x00,0x00,0xcc,0x0c,0x00,0x00,0xcd,0x0c,
    0x00,0x00,0xce,0x0c,0x00,0x00,0xcf,0x0c,0x00,0x00,0xd0,0x0c,0x00,0x00,0xd1,0x0c,
    0x00,0x00,0xd2,0x0c,0x00,0x00,0xd3,0x0c,0x00,0x00,0xd4,0x0c,0x00,0x00,0xd5,0x0c,
    0x00,0x00,0xd6,0x0c,0x00,0x00,0xd7,0x0c,0x00,0x00,0xd8,0x0c,0x00,0x00,0xd9,0x0c,
    0x00,0x00,0xda,0x0c,0x00,0x00,0xdb,0x0c,0x00,0x00,0xdc,0x0c,0x00,0x00,0xdd,0x0c,
    0x00,0x00,0xde,0x0c,0x00,0x00,0xdf,0x0c,0x00,0x00,0xe0,0x0e,0x00,0x00,0xe1,0x0e,
    0x00,0x00,0xe2,0x0e,0x00,0x00,0xe3,0x0e,0x00,0x00,0xe4,0x0e,0x00,0x00,0xe5,0x0e,
    0x00,0x00,0xe6,0x0e,0x00,0x00,0xe7,0x0e,0x00,0x00,0xe8,0x0e,0x00,0x00,0xe9,0x0e,
    0x00,0x00,0xea,0x0e,0x00,0x00,0xeb,0x0e,0x00,0x00,0xec,0x0e,0x00,0x00,0xed,0x0e,
    0x00,0x00,0xee,0x0e,0x00,0x00,0xef,0x0e,0x00,0x00,0xf0,0x0e,0x00,0x00,0xf1,0x0e,
    0x00,0x00,0xf2,0x0e,0x00,0x00,0xf3,0x0e,0x00,0x00,0xf4,0x0e,0x00,0x00,0xf5,0x0e,
    0x00,0x00,0xf6,0x0e,0x00,0x00,0xf7,0x0e,0x00,0x00,0xf8,0x0e,0x00,0x00,0xf9,0x0e,
    0x00,0x00,0xfa,0x0e,0x00,0x00,0xfb,0x0e,0x00,0x00,0xfc,0x0e,0x00,0x00,0xfd,0x0e,
    0x00,0x00,0xfe,0x0e,0x00,0x00,0xff,0x0e,0x00,0x00,0x00,0x11,0x00,0x00,0x01,0x11,
    0x00,0x00,0x02,0x11,0x00,0x00,0x03,0x11,0x00,0x00,0x04,0x11,0x00,0x00,0x05,0x11,
    0x00,0x00,0x06,0x11,0x00,0x00,0x07,0x11,0x00,0x00,0x08,0x11,0x00,0x00,0x09,0x11,
    0x00,0x00,0x0a,0x11,0x00,0x00,0x0b,0x11,0x00,0x00,0x0c,0x11,0x00,0x00,0x0d,0x11,
    0x00,0x00,0x0e,0x11,0x00,0x00,0x0f,0x11,0x00,0x00,0x10,0x11,0x00,0x00,0x11,0x11,
    0x00,0x00,0x12,0x11,0x00,0x00,0x13,0x11,0x00,0x00,0x14,0x11,0x00,0x00,0x15,0x11,
    0x00,0x00,0x16,0x11,0x00,0x00,0x17,0x11,0x00,0x00,0x18,0x11,0x00,0x00,0x19,0x11,
    0x00,0x00,0x1a,0x11,0x00,0x00,0x1b,0x11,0x00,0x00,0x1c,0x11,0x00,0x00,0x1d,0x11,
    0x00,0x00,0x1e,0x11,0x00,0x00,0x1f,0x11,0x00,0x00,0x20,0x13,0x00,0x00,0x21,0x13,
    0x00,0x00,0x22,0x13,0x00,0x00,0x23,0x13,0x00,0x00,0x24,0x13,0x00,0x00,0x25,0x13,
    0x00,0x00,0x26,0x13,0x00,0x00,0x27,0x13,0x00,0x00,0x28,0x13,0x00,0x00,0x29,0x13,
    0x00,0x00,0x2a,0x13,0x00,0x00,0x2b,0x13,0x00,0x00,0x2c,0x13,0x00,0x00,0x2d,0x13,
    0x00,0x00,0x2e,0x13,0x00,0x00,0x2f,0x13,0x00,0x00,0x30,0x13,0x00,0x00,0x31,0x13,
    0x00,0x00,0x32,0x13,0x00,0x00,0x33,0x13,0x00,0x00,0x34,0x13,0x00,0x00,0x35,0x13,
    0x00,0x00,0x36,0x13,0x00,0x00,0x37,0x13,0x00,0x00,0x38,0x13,0x00,0x00,0x39,0x13,
    0x00,0x00,0x3a,0x13,0x00,0x00,0x3b,0x13,0x00,0x00,0x3c,0x13,0x00,0x00,0x3d,0x13,
    0x00,0x00,0x3e,0x13,0x00,0x00,0x3f,0x13,0x00,0x00,0x40,0x15,0x00,0x00,0x41,0x15,
    0x00,0x00,0x42,0x15,0x00,0x00,0x43,0x15,0x00,0x00,0x44,0x15,0x00,0x00,0x45,0x15,
    0x00,0x00,0x46,0x15,0x00,0x00,0x47,0x15,0x00,0x00,0x48,0x15,0x00,0x00,0x49,0x15,
    0x00,0x00,0x4a,0x15,0x00,0x00,0x4b,0x15,0x00,0x00,0x4c,0x15,0x00,0x00,0x4d,0x15,
    0x00,0x00,0x4e,0x15,0x00,0x00,0x4f,0x15,0x00,0x00,0x50,0x15,0x00,0x00,0x51,0x15,
    0x00,0x00,0x52,0x15,0x00,0x00,0x53,0x15,0x00,0x00,0x54,0x15,0x00,0x00,0x55,0x15,
    0x00,0x00,0x56,0x15,0x00,0x00,0x57,0x15,0x00,0x00,0x58,0x15,0x00,0x00,0x59,0x15,
    0x00,0x00,0x5a,0x15,0x00,0x00,0x5b,0x15,0x00,0x00,0x5c,0x15,0x00,0x00,0x5d,0x15,
    0x00,0x00,0x5e,0x15,0x00,0x00,0x5f,0x15,0x00,0x00,0x60,0x17,0x00,0x00,0x61,0x17,
    0x00,0x00,0x62,0x17,0x00,0x00,0x63,0x17,0x00,0x00,0x64,0x17,0x00,0x00,0x65,0x17,
    0x00,0x00,0x66,0x17,0x00,0x00,0x67,0x17,0x00,0x00,0x68,0x17,0x00,0x00,0x69,0x17,
    0x00,0x00,0x6a,0x17,0x00,0x00,0x6b,0x17,0x00,0x00,0x6c,0x17,0x00,0x00,0x6d,0x17,
    0x00,0x00,0x6e,0x17,0x00,0x00,0x6f,0x17,0x00,0x00,0x70,0x17,0x00,0x00,0x71,0x17,
    0x00,0x00,0x72,0x17,0x00,0x00,0x73,0x17,0x00,0x00,0x74,0x17,0x00,0x00,0x75,0x17,
    0x00,0x00,0x76,0x17,0x00,0x00,0x77,0x17,0x00,0x00,0x78,0x17,0x00,0x00,0x79,0x17,
    0x00,0x00,0x7a,0x17,0x00,0x00,0x7b,0x17,0x00,0x00,0x7c,0x17,0x00,0x00,0x7d,0x17,
    0x00,0x00,0x7e,0x17,0x00,0x00,0x7f,0x17,0x00,0x00,0x80,0x19,0x00,0x00,0x81,0x19,
    0x00,0x00,0x82,0x19,0x00,0x00,0x83,0x19,0x00,0x00,0x84,0x19,0x00,0x00,0x85,0x19,
    0x00,0x00,0x86,0x19,0x00,0x00,0x87,0x19,0x00,0x00,0x88,0x19,0x00,0x00,0x89,0x19,
    0x00,0x00,0x8a,0x19,0x00,0x00,0x8b,0x19,0x00,0x00,0x8c,0x19,0x00,0x00,0x8d,0x19,
    0x00,0x00,0x8e,0x19,0x00,0x00,0x8f,0x19,0x00,0x00,0x90,0x19,0x00,0x00,0x91,0x19,
    0x00,0x00,0x92,0x19,0x00,0x00,0x93,0x19,0x00,0x00,0x94,0x19,0x00,0x00,0x95,0x19,
    0x00,0x00,0x96,0x19,0x00,0x00,0x97,0x19,0x00,0x00,0x98,0x19,0x00,0x00,0x99,0x19,
    0x00,0x00,0x9a,0x19,0x00,0x00,0x9b,0x19,0x00,0x00,0x9c,0x19,0x00,0x00,0x9d,0x19,
    0x00,0x00,0x9e,0x19,0x00,0x00,0x9f,0x19,0x00,0x00,0xa0,0x1b,0x00,0x00,0xa1,0x1b,
    0x00,0x00,0xa2,0x1b,0x00,0x00,0xa3,0x1b,0x00,0x00,0xa4,0x1b,0x00,0x00,0xa5,0x1b,
    0x00,0x00,0xa6,0x1b,0x00,0x00,0xa7,0x1b,0x00,0x00,0xa8,0x1b,0x00,0x00,0xa9,0x1b,
    0x00,0x00,0xaa,0x1b,0x00,0x00,0xab,0x1b,0x00,0x00,0xac,0x1b,0x00,0x00,0xad,0x1b,
    0x00,0x00,0xae,0x1b,0x00,0x00,0xaf,0x1b,0x00,0x00,0xb0,0x1b,0x00,0x00,0xb1,0x1b,
    0x00,0x00,0xb2,0x1b,0x00,0x00,0xb3,0x1b,0x00,0x00,0xb4,0x1b,0x00,0x00,0xb5,0x1b,
    0x00,0x00,0xb6,0x1b,0x00,0x00,0xb7,0x1b,0x00,0x00,0xb8,0x1b,0x00,0x00,0xb9,0x1b,
    0x00,0x00,0xba,0x1b,0x00,0x00,0xbb,0x1b,0x00,0x00,0xbc,0x1b,0x00,0x00,0xbd,0x1b,
    0x00,0x00,0xbe,0x1b,0x00,0x00,0xbf,0x1b,0x00,0x00,0xc0,0x1d,0x00,0x00,0xc1,0x1d,
    0x00,0x00,0xc2,0x1d,0x00,0x00,0xc3,0x1d,0x00,0x00,0xc4,0x1d,0x00,0x00,0xc5,0x1d,
    0x00,0x00,0xc6,0x1d,0x00,0x00,0xc7,0x1d,0x00,0x00,0xc8,0x1d,0x00,0x00,0xc9,0x1d,
    0x00,0x00,0xca,0x1d,0x00,0x00,0xcb,0x1d,0x00,0x00,0xcc,0x1d,0x00,0x00,0xcd,0x1d,
    0x00,0x00,0xce,0x1d,0x00,0x00,0xcf,0x1d,0x00,0x00,0xd0,0x1d,0x00,0x00,0xd1,0x1d,
    0x00,0x00,0xd2,0x1d,0x00,0x00,0xd3,0x1d,0x00,0x00,0xd4,0x1d,0x00,0x00,0xd5,0x1d,
    0x00,0x00,0xd6,0x1d,0x00,0x00,0xd7,0x1d,0x00,0x00,0xd8,0x1d,0x00,0x00,0xd9,0x1d,
    0x00,0x00,0xda,0x1d,0x00,0x00,0xdb,0x1d,0x00,0x00,0xdc,0x1d,0x00,0x00,0xdd,0x1d,
    0x00,0x00,0xde,0x1d,0x00,0x00,0xdf,0x1d,0x00,0x00,0xe0,0x1f,0x00,0x00,0xe1,0x1f,
    0x00,0x00,0xe2,0x1f,0x00,0x00,0xe3,0x1f,0x00,0x00,0xe4,0x1f,0x00,0x00,0xe5,0x1f,
    0x00,0x00,0xe6,0x1f,0x00,0x00,0xe7,0x1f,0x00,0x00,0xe8,0x1f,0x00,0x00,0xe9,0x1f,
    0x00,0x00,0xea,0x1f,0x00,0x00,0xeb,0x1f,0x00,0x00,0xec,0x1f,0x00,0x00,0xed,0x1f,
    0x00,0x00,0xee,0x1f,0x00,0x00,0xef,0x1f,0x00,0x00,0xf0,0x1f,0x00,0x00,0xf1,0x1f,
    0x00,0x00,0xf2,0x1f,0x00,0x00,0xf3,0x1f,0x00,0x00,0xf4,0x1f,0x00,0x00,0xf5,0x1f,
    0x00,0x00,0xf6,0x1f,0x00,0x00,0xf7,0x1f,0x00,0x00,0xf8,0x1f,0x00,0x00,0xf9,0x1f,
    0x00,0x00,0xfa,0x1f,0x00,0x00,0xfb,0x1f,0x00,0x00,0xfc,0x1f,0x00,0x00,0xfd,0x1f,
    0x00,0x00,0xfe,0x1f,0x00,0x00,0xff,0x1f,0x00,0x00,0x00,0x20,0x00,0x00,0x01,0x20,
    0x00,0x00,0x20,0x20,0x00,0x00,0x21,0x20,0x00,0x00,0x40,0x20,0x00,0x00,0x41,0x20,
    0x00,0x00,0x60,0x20,0x00,0x00,0x61,0x20,0x00,0x00,0x80,0x20,0x00,0x00,0x81,0x20,
    0x00,0x00,0xa0,0x20,0x00,0x00,0xa1,0x20,0x00,0x00,0xc0,0x20,0x00,0x00,0xc1,0x20,
    0x00,0x00,0xe0,0x20,0x00,0x00,0xe1,0x20,0x00,0x00,0x00,0x21,0x00,0x00,0x01,0x21,
    0x00,0x00,0x20,0x21,0x00,0x00,0x21,0x21,0x00,0x00,0x40,0x21,0x00,0x00,0x41,0x21,
    0x00,0x00,0x60,0x21,0x00,0x00,0x61,0x21,0x00,0x00,0x80,0x21,0x00,0x00,0x81,0x21,
    0x00,0x00,0xa0,0x21,0x00,0x00,0xa1,0x21,0x00,0x00,0xc0,0x21,0x00,0x00,0xc1,0x21,
    0x00,0x00,0xe0,0x21,0x00,0x00,0xe1,0x21,0x00,0x00,0x02,0x22,0x00,0x00,0x03,0x22,
    0x00,0x00,0x22,0x22,0x00,0x00,0x23,0x22,0x00,0x00,0x42,0x22,0x00,0x00,0x43,0x22,
    0x00,0x00,0x62,0x22,0x00,0x00,0x63,0x22,0x00,0x00,0x82,0x22,0x00,0x00,0x83,0x22,
    0x00,0x00,0xa2,0x22,0x00,0x00,0xa3,0x22,0x00,0x00,0xc2,0x22,0x00,0x00,0xc3,0x22,
    0x00,0x00,0xe2,0x22,0x00,0x00,0xe3,0x22,0x00,0x00,0x02,0x23,0x00,0x00,0x03,0x23,
    0x00,0x00,0x22,0x23,0x00,0x00,0x23,0x23,0x00,0x00,0x42,0x23,0x00,0x00,0x43,0x23,
    0x00,0x00,0x62,0x23,0x00,0x00,0x63,0x23,0x00,0x00,0x82,0x23,0x00,0x00,0x83,0x23,
    0x00,0x00,0xa2,0x23,0x00,0x00,0xa3,0x23,0x00,0x00,0xc2,0x23,0x00,0x00,0xc3,0x23,
    0x00,0x00,0xe2,0x23,0x00,0x00,0xe3,0x23,0x00,0x00,0x04,0x24,0x00,0x00,0x05,0x24,
    0x00,0x00,0x24,0x24,0x00,0x00,0x25,0x24,0x00,0x00,0x44,0x24,0x00,0x00,0x45,0x24,
    0x00,0x00,0x64,0x24,0x00,0x00,0x65,0x24,0x00,0x00,0x84,0x24,0x00,0x00,0x85,0x24,
    0x00,0x00,0xa4,0x24,0x00,0x00,0xa5,0x24,0x00,0x00,0xc4,0x24,0x00,0x00,0xc5,0x24,
    0x00,0x00,0xe4,0x24,0x00,0x00,0xe5,0x24,0x00,0x00,0x04,0x25,0x00,0x00,0x05,0x25,
    0x00,0x00,0x24,0x25,0x00,0x00,0x25,0x25,0x00,0x00,0x44,0x25,0x00,0x00,0x45,0x25,
    0x00,0x00,0x64,0x25,0x00,0x00,0x65,0x25,0x00,0x00,0x84,0x25,0x00,0x00,0x85,0x25,
    0x00,0x00,0xa4,0x25,0x00,0x00,0xa5,0x25,0x00,0x00,0xc4,0x25,0x00,0x00,0xc5,0x25,
    0x00,0x00,0xe4,0x25,0x00,0x00,0xe5,0x25,0x00,0x00,0x06,0x26,0x00,0x00,0x07,0x26,
    0x00,0x00,0x26,0x26,0x00,0x00,0x27,0x26,0x00,0x00,0x46,0x26,0x00,0x00,0x47,0x26,
    0x00,0x00,0x66,0x26,0x00,0x00,0x67,0x26,0x00,0x00,0x86,0x26,0x00,0x00,0x87,0x26,
    0x00,0x00,0xa6,0x26,0x00,0x00,0xa7,0x26,0x00,0x00,0xc6,0x26,0x00,0x00,0xc7,0x26,
    0x00,0x00,0xe6,0x26,0x00,0x00,0xe7,0x26,0x00,0x00,0x06,0x27,0x00,0x00,0x07,0x27,
    0x00,0x00,0x26,0x27,0x00,0x00,0x27,0x27,0x00,0x00,0x46,0x27,0x00,0x00,0x47,0x27,
    0x00,0x00,0x66,0x27,0x00,0x00,0x67,0x27,0x00,0x00,0x86,0x27,0x00,0x00,0x87,0x27,
    0x00,0x00,0xa6,0x27,0x00,0x00,0xa7,0x27,0x00,0x00,0xc6,0x27,0x00,0x00,0xc7,0x27,
    0x00,0x00,0xe6,0x27,0x00,0x00,0xe7,0x27,0x00,0x00,0x08,0x28,0x00,0x00,0x09,0x28,
    0x00,0x00,0x28,0x28,0x00,0x00,0x29,0x28,0x00,0x00,0x48,0x28,0x00,0x00,0x49,0x28,
    0x00,0x00,0x68,0x28,0x00,0x00,0x69,0x28,0x00,0x00,0x88,0x28,0x00,0x00,0x89,0x28,
    0x00,0x00,0xa8,0x28,0x00,0x00,0xa9,0x28,0x00,0x00,0xc8,0x28,0x00,0x00,0xc9,0x28,
    0x00,0x00,0xe8,0x28,0x00,0x00,0xe9,0x28,0x00,0x00,0x08,0x29,0x00,0x00,0x09,0x29,
    0x00,0x00,0x28,0x29,0x00,0x00,0x29,0x29,0x00,0x00,0x48,0x29,0x00,0x00,0x49,0x29,
    0x00,0x00,0x68,0x29,0x00,0x00,0x69,0x29,0x00,0x00,0x88,0x29,0x00,0x00,0x89,0x29,
    0x00,0x00,0xa8,0x29,0x00,0x00,0xa9,0x29,0x00,0x00,0xc8,0x29,0x00,0x00,0xc9,0x29,
    0x00,0x00,0xe8,0x29,0x00,0x00,0xe9,0x29,0x00,0x00,0x0a,0x2a,0x00,0x00,0x0b,0x2a,
    0x00,0x00,0x2a,0x2a,0x00,0x00,0x2b,0x2a,0x00,0x00,0x4a,0x2a,0x00,0x00,0x4b,0x2a,
    0x00,0x00,0x6a,0x2a,0x00,0x00,0x6b,0x2a,0x00,0x00,0x8a,0x2a,0x00,0x00,0x8b,0x2a,
    0x00,0x00,0xaa,0x2a,0x00,0x00,0xab,0x2a,0x00,0x00,0xca,0x2a,0x00,0x00,0xcb,0x2a,
    0x00,0x00,0xea,0x2a,0x00,0x00,0xeb,0x2a,0x00,0x00,0x0a,0x2b,0x00,0x00,0x0b,0x2b,
    0x00,0x00,0x2a,0x2b,0x00,0x00,0x2b,0x2b,0x00,0x00,0x4a,0x2b,0x00,0x00,0x4b,0x2b,
    0x00,0x00,0x6a,0x2b,0x00,0x00,0x6b,0x2b,0x00,0x00,0x8a,0x2b,0x00,0x00,0x8b,0x2b,
    0x00,0x00,0xaa,0x2b,0x00,0x00,0xab,0x2b,0x00,0x00,0xca,0x2b,0x00,0x00,0xcb,0x2b,
    0x00,0x00,0xea,0x2b,0x00,0x00,0xeb,0x2b,0x00,0x00,0x0c,0x2c,0x00,0x00,0x0d,0x2c,
    0x00,0x00,0x2c,0x2c,0x00,0x00,0x2d,0x2c,0x00,0x00,0x4c,0x2c,0x00,0x00,0x4d,0x2c,
    0x00,0x00,0x6c,0x2c,0x00,0x00,0x6d,0x2c,0x00,0x00,0x8c,0x2c,0x00,0x00,0x8d,0x2c,
    0x00,0x00,0xac,0x2c,0x00,0x00,0xad,0x2c,0x00,0x00,0xcc,0x2c,0x00,0x00,0xcd,0x2c,
    0x00,0x00,0xec,0x2c,0x00,0x00,0xed,0x2c,0x00,0x00,0x0c,0x2d,0x00,0x00,0x0d,0x2d,
    0x00,0x00,0x2c,0x2d,0x00,0x00,0x2d,0x2d,0x00,0x00,0x4c,0x2d,0x00,0x00,0x4d,0x2d,
    0x00,0x00,0x6c,0x2d,0x00,0x00,0x6d,0x2d,0x00,0x00,0x8c,0x2d,0x00,0x00,0x8d,0x2d,
    0x00,0x00,0xac,0x2d,0x00,0x00,0xad,0x2d,0x00,0x00,0xcc,0x2d,0x00,0x00,0xcd,0x2d,
    0x00,0x00,0xec,0x2d,0x00,0x00,0xed,0x2d,0x00,0x00,0x0e,0x2e,0x00,0x00,0x0f,0x2e,
    0x00,0x00,0x2e,0x2e,0x00,0x00,0x2f,0x2e,0x00,0x00,0x4e,0x2e,0x00,0x00,0x4f,0x2e,
    0x00,0x00,0x6e,0x2e,0x00,0x00,0x6f,0x2e,0x00,0x00,0x8e,0x2e,0x00,0x00,0x8f,0x2e,
    0x00,0x00,0xae,0x2e,0x00,0x00,0xaf,0x2e,0x00,0x00,0xce,0x2e,0x00,0x00,0xcf,0x2e,
    0x00,0x00,0xee,0x2e,0x00,0x00,0xef,0x2e,0x00,0x00,0x0e,0x2f,0x00,0x00,0x0f,0x2f,
    0x00,0x00,0x2e,0x2f,0x00,0x00,0x2f,0x2f,0x00,0x00,0x4e,0x2f,0x00,0x00,0x4f,0x2f,
    0x00,0x00,0x6e,0x2f,0x00,0x00,0x6f,0x2f,0x00,0x00,0x8e,0x2f,0x00,0x00,0x8f,0x2f,
    0x00,0x00,0xae,0x2f,0x00,0x00,0xaf,0x2f,0x00,0x00,0xce,0x2f,0x00,0x00,0xcf,0x2f,
    0x00,0x00,0xee,0x2f,0x00,0x00,0xef,0x2f,0x00,0x00,0x10,0x30,0x00,0x00,0x11,0x30,
    0x00,0x00,0x30,0x30,0x00,0x00,0x31,0x30,0x00,0x00,0x50,0x30,0x00,0x00,0x51,0x30,
    0x00,0x00,0x70,0x30,0x00,0x00,0x71,0x30,0x00,0x00,0x90,0x30,0x00,0x00,0x91,0x30,
    0x00,0x00,0xb0,0x30,0x00,0x00,0xb1,0x30,0x00,0x00,0xd0,0x30,0x00,0x00,0xd1,0x30,
    0x00,0x00,0xf0,0x30,0x00,0x00,0xf1,0x30,0x00,0x00,0x10,0x31,0x00,0x00,0x11,0x31,
    0x00,0x00,0x30,0x31,0x00,0x00,0x31,0x31,0x00,0x00,0x50,0x31,0x00,0x00,0x51,0x31,
    0x00,0x00,0x70,0x31,0x00,0x00,0x71,0x31,0x00,0x00,0x90,0x31,0x00,0x00,0x91,0x31,
    0x00,0x00,0xb0,0x31,0x00,0x00,0xb1,0x31,0x00,0x00,0xd0,0x31,0x00,0x00,0xd1,0x31,
    0x00,0x00,0xf0,0x31,0x00,0x00,0xf1,0x31,0x00,0x00,0x12,0x32,0x00,0x00,0x13,0x32,
    0x00,0x00,0x32,0x32,0x00,0x00,0x33,0x32,0x00,0x00,0x52,0x32,0x00,0x00,0x53,0x32,
    0x00,0x00,0x72,0x32,0x00,0x00,0x73,0x32,0x00,0x00,0x92,0x32,0x00,0x00,0x93,0x32,
    0x00,0x00,0xb2,0x32,0x00,0x00,0xb3,0x32,0x00,0x00,0xd2,0x32,0x00,0x00,0xd3,0x32,
    0x00,0x00,0xf2,0x32,0x00,0x00,0xf3,0x32,0x00,0x00,0x12,0x33,0x00,0x00,0x13,0x33,
    0x00,0x00,0x32,0x33,0x00,0x00,0x33,0x33,0x00,0x00,0x52,0x33,0x00,0x00,0x53,0x33,
    0x00,0x00,0x72,0x33,0x00,0x00,0x73,0x33,0x00,0x00,0x92,0x33,0x00,0x00,0x93,0x33,
    0x00,0x00,0xb2,0x33,0x00,0x00,0xb3,0x33,0x00,0x00,0xd2,0x33,0x00,0x00,0xd3,0x33,
    0x00,0x00,0xf2,0x33,0x00,0x00,0xf3,0x33,0x00,0x00,0x14,0x34,0x00,0x00,0x15,0x34,
    0x00,0x00,0x34,0x34,0x00,0x00,0x35,0x34,0x00,0x00,0x54,0x34,0x00,0x00,0x55,0x34,
    0x00,0x00,0x74,0x34,0x00,0x00,0x75,0x34,0x00,0x00,0x94,0x34,0x00,0x00,0x95,0x34,
    0x00,0x00,0xb4,0x34,0x00,0x00,0xb5,0x34,0x00,0x00,0xd4,0x34,0x00,0x00,0xd5,0x34,
    0x00,0x00,0xf4,0x34,0x00,0x00,0xf5,0x34,0x00,0x00,0x14,0x35,0x00,0x00,0x15,0x35,
    0x00,0x00,0x34,0x35,0x00,0x00,0x35,0x35,0x00,0x00,0x54,0x35,0x00,0x00,0x55,0x35,
    0x00,0x00,0x74,0x35,0x00,0x00,0x75,0x35,0x00,0x00,0x94,0x35,0x00,0x00,0x95,0x35,
    0x00,0x00,0xb4,0x35,0x00,0x00,0xb5,0x35,0x00,0x00,0xd4,0x35,0x00,0x00,0xd5,0x35,
    0x00,0x00,0xf4,0x35,0x00,0x00,0xf5,0x35,0x00,0x00,0x16,0x36,0x00,0x00,0x17,0x36,
    0x00,0x00,0x36,0x36,0x00,0x00,0x37,0x36,0x00,0x00,0x56,0x36,0x00,0x00,0x57,0x36,
    0x00,0x00,0x76,0x36,0x00,0x00,0x77,0x36,0x00,0x00,0x96,0x36,0x00,0x00,0x97,0x36,
    0x00,0x00,0xb6,0x36,0x00,0x00,0xb7,0x36,0x00,0x00,0xd6,0x36,0x00,0x00,0xd7,0x36,
    0x00,0x00,0xf6,0x36,0x00,0x00,0xf7,0x36,0x00,0x00,0x16,0x37,0x00,0x00,0x17,0x37,
    0x00,0x00,0x36,0x37,0x00,0x00,0x37,0x37,0x00,0x00,0x56,0x37,0x00,0x00,0x57,0x37,
    0x00,0x00,0x76,0x37,0x00,0x00,0x77,0x37,0x00,0x00,0x96,0x37,0x00,0x00,0x97,0x37,
    0x00,0x00,0xb6,0x37,0x00,0x00,0xb7,0x37,0x00,0x00,0xd6,0x37,0x00,0x00,0xd7,0x37,
    0x00,0x00,0xf6,0x37,0x00,0x00,0xf7,0x37,0x00,0x00,0x18,0x38,0x00,0x00,0x19,0x38,
    0x00,0x00,0x38,0x38,0x00,0x00,0x39,0x38,0x00,0x00,0x58,0x38,0x00,0x00,0x59,0x38,
    0x00,0x00,0x78,0x38,0x00,0x00,0x79,0x38,0x00,0x00,0x98,0x38,0x00,0x00,0x99,0x38,
    0x00,0x00,0xb8,0x38,0x00,0x00,0xb9,0x38,0x00,0x00,0xd8,0x38,0x00,0x00,0xd9,0x38,
    0x00,0x00,0xf8,0x38,0x00,0x00,0xf9,0x38,0x00,0x00,0x18,0x39,0x00,0x00,0x19,0x39,
    0x00,0x00,0x38,0x39,0x00,0x00,0x39,0x39,0x00,0x00,0x58,0x39,0x00,0x00,0x59,0x39,
    0x00,0x00,0x78,0x39,0x00,0x00,0x79,0x39,0x00,0x00,0x98,0x39,0x00,0x00,0x99,0x39,
    0x00,0x00,0xb8,0x39,0x00,0x00,0xb9,0x39,0x00,0x00,0xd8,0x39,0x00,0x00,0xd9,0x39,
    0x00,0x00,0xf8,0x39,0x00,0x00,0xf9,0x39,0x00,0x00,0x1a,0x3a,0x00,0x00,0x1b,0x3a,
    0x00,0x00,0x3a,0x3a,0x00,0x00,0x3b,0x3a,0x00,0x00,0x5a,0x3a,0x00,0x00,0x5b,0x3a,
    0x00,0x00,0x7a,0x3a,0x00,0x00,0x7b,0x3a,0x00,0x00,0x9a,0x3a,0x00,0x00,0x9b,0x3a,
    0x00,0x00,0xba,0x3a,0x00,0x00,0xbb,0x3a,0x00,0x00,0xda,0x3a,0x00,0x00,0xdb,0x3a,
    0x00,0x00,0xfa,0x3a,0x00,0x00,0xfb,0x3a,0x00,0x00,0x1a,0x3b,0x00,0x00,0x1b,0x3b,
    0x00,0x00,0x3a,0x3b,0x00,0x00,0x3b,0x3b,0x00,0x00,0x5a,0x3b,0x00,0x00,0x5b,0x3b,
    0x00,0x00,0x7a,0x3b,0x00,0x00,0x7b,0x3b,0x00,0x00,0x9a,0x3b,0x00,0x00,0x9b,0x3b,
    0x00,0x00,0xba,0x3b,0x00,0x00,0xbb,0x3b,0x00,0x00,0xda,0x3b,0x00,0x00,0xdb,0x3b,
    0x00,0x00,0xfa,0x3b,0x00,0x00,0xfb,0x3b,0x00,0x00,0x1c,0x3c,0x00,0x00,0x1d,0x3c,
    0x00,0x00,0x3c,0x3c,0x00,0x00,0x3d,0x3c,0x00,0x00,0x5c,0x3c,0x00,0x00,0x5d,0x3c,
    0x00,0x00,0x7c,0x3c,0x00,0x00,0x7d,0x3c,0x00,0x00,0x9c,0x3c,0x00,0x00,0x9d,0x3c,
    0x00,0x00,0xbc,0x3c,0x00,0x00,0xbd,0x3c,0x00,0x00,0xdc,0x3c,0x00,0x00,0xdd,0x3c,
    0x00,0x00,0xfc,0x3c,0x00,0x00,0xfd,0x3c,0x00,0x00,0x1c,0x3d,0x00,0x00,0x1d,0x3d,
    0x00,0x00,0x3c,0x3d,0x00,0x00,0x3d,0x3d,0x00,0x00,0x5c,0x3d,0x00,0x00,0x5d,0x3d,
    0x00,0x00,0x7c,0x3d,0x00,0x00,0x7d,0x3d,0x00,0x00,0x9c,0x3d,0x00,0x00,0x9d,0x3d,
    0x00,0x00,0xbc,0x3d,0x00,0x00,0xbd,0x3d,0x00,0x00,0xdc,0x3d,0x00,0x00,0xdd,0x3d,
    0x00,0x00,0xfc,0x3d,0x00,0x00,0xfd,0x3d,0x00,0x00,0x1e,0x3e,0x00,0x00,0x1f,0x3e,
    0x00,0x00,0x3e,0x3e,0x00,0x00,0x3f,0x3e,0x00,0x00,0x5e,0x3e,0x00,0x00,0x5f,0x3e,
    0x00,0x00,0x7e,0x3e,0x00,0x00,0x7f,0x3e,0x00,0x00,0x9e,0x3e,0x00,0x00,0x9f,0x3e,
    0x00,0x00,0xbe,0x3e,0x00,0x00,0xbf,0x3e,0x00,0x00,0xde,0x3e,0x00,0x00,0xdf,0x3e,
    0x00,0x00,0xfe,0x3e,0x00,0x00,0xff,0x3e,0x00,0x00,0x1e,0x3f,0x00,0x00,0x1f,0x3f,
    0x00,0x00,0x3e,0x3f,0x00,0x00,0x3f,0x3f,0x00,0x00,0x5e,0x3f,0x00,0x00,0x5f,0x3f,
    0x00,0x00,0x7e,0x3f,0x00,0x00,0x7f,0x3f,0x00,0x00,0x9e,0x3f,0x00,0x00,0x9f,0x3f,
    0x00,0x00,0xbe,0x3f,0x00,0x00,0xbf,0x3f,0x00,0x00,0xde,0x3f,0x00,0x00,0xdf,0x3f,
    0x00,0x00,0xfe,0x3f,0x00,0x00,0xff,0x3f,0x00,0x00,0x00,0x40,0x00,0x00,0x02,0x40,
    0x00,0x00,0x04,0x40,0x00,0x00,0x06,0x40,0x00,0x00,0x08,0x40,0x00,0x00,0x0a,0x40,
    0x00,0x00,0x0c,0x40,0x00,0x00,0x0e,0x40,0x00,0x00,0x10,0x40,0x00,0x00,0x12,0x40,
    0x00,0x00,0x14,0x40,0x00,0x00,0x16,0x40,0x00,0x00,0x18,0x40,0x00,0x00,0x1a,0x40,
    0x00,0x00,0x1c,0x40,0x00,0x00,0x1e,0x40,0x00,0x00,0x20,0x40,0x00,0x00,0x22,0x40,
    0x00,0x00,0x24,0x40,0x00,0x00,0x26,0x40,0x00,0x00,0x28,0x40,0x00,0x00,0x2a,0x40,
    0x00,0x00,0x2c,0x40,0x00,0x00,0x2e,0x40,0x00,0x00,0x30,0x40,0x00,0x00,0x32,0x40,
    0x00,0x00,0x34,0x40,0x00,0x00,0x36,0x40,0x00,0x00,0x38,0x40,0x00,0x00,0x3a,0x40,
    0x00,0x00,0x3c,0x40,0x00,0x00,0x3e,0x40,0x00,0x00,0x40,0x40,0x00,0x00,0x42,0x40,
    0x00,0x00,0x44,0x40,0x00,0x00,0x46,0x40,0x00,0x00,0x48,0x40,0x00,0x00,0x4a,0x40,
    0x00,0x00,0x4c,0x40,0x00,0x00,0x4e,0x40,0x00,0x00,0x50,0x40,0x00,0x00,0x52,0x40,
    0x00,0x00,0x54,0x40,0x00,0x00,0x56,0x40,0x00,0x00,0x58,0x40,0x00,0x00,0x5a,0x40,
    0x00,0x00,0x5c,0x40,0x00,0x00,0x5e,0x40,0x00,0x00,0x60,0x40,0x00,0x00,0x62,0x40,
    0x00,0x00,0x64,0x40,0x00,0x00,0x66,0x40,0x00,0x00,0x68,0x40,0x00,0x00,0x6a,0x40,
    0x00,0x00,0x6c,0x40,0x00,0x00,0x6e,0x40,0x00,0x00,0x70,0x40,0x00,0x00,0x72,0x40,
    0x00,0x00,0x74,0x40,0x00,0x00,0x76,0x40,0x00,0x00,0x78,0x40,0x00,0x00,0x7a,0x40,
    0x00,0x00,0x7c,0x40,0x00,0x00,0x7e,0x40,0x00,0x00,0x80,0x40,0x00,0x00,0x82,0x40,
    0x00,0x00,0x84,0x40,0x00,0x00,0x86,0x40,0x00,0x00,0x88,0x40,0x00,0x00,0x8a,0x40,
    0x00,0x00,0x8c,0x40,0x00,0x00,0x8e,0x40,0x00,0x00,0x90,0x40,0x00,0x00,0x92,0x40,
    0x00,0x00,0x94,0x40,0x00,0x00,0x96,0x40,0x00,0x00,0x98,0x40,0x00,0x00,0x9a,0x40,
    0x00,0x00,0x9c,0x40,0x00,0x00,0x9e,0x40,0x00,0x00,0xa0,0x40,0x00,0x00,0xa2,0x40,
    0x00,0x00,0xa4,0x40,0x00,0x00,0xa6,0x40,0x00,0x00,0xa8,0x40,0x00,0x00,0xaa,0x40,
    0x00,0x00,0xac,0x40,0x00,0x00,0xae,0x40,0x00,0x00,0xb0,0x40,0x00,0x00,0xb2,0x40,
    0x00,0x00,0xb4,0x40,0x00,0x00,0xb6,0x40,0x00,0x00,0xb8,0x40,0x00,0x00,0xba,0x40,
    0x00,0x00,0xbc,0x40,0x00,0x00,0xbe,0x40,0x00,0x00,0xc0,0x40,0x00,0x00,0xc2,0x40,
    0x00,0x00,0xc4,0x40,0x00,0x00,0xc6,0x40,0x00,0x00,0xc8,0x40,0x00,0x00,0xca,0x40,
    0x00,0x00,0xcc,0x40,0x00,0x00,0xce,0x40,0x00,0x00,0xd0,0x40,0x00,0x00,0xd2,0x40,
    0x00,0x00,0xd4,0x40,0x00,0x00,0xd6,0x40,0x00,0x00,0xd8,0x40,0x00,0x00,0xda,0x40,
    0x00,0x00,0xdc,0x40,0x00,0x00,0xde,0x40,0x00,0x00,0xe0,0x40,0x00,0x00,0xe2,0x40,
    0x00,0x00,0xe4,0x40,0x00,0x00,0xe6,0x40,0x00,0x00,0xe8,0x40,0x00,0x00,0xea,0x40,
    0x00,0x00,0xec,0x40,0x00,0x00,0xee,0x40,0x00,0x00,0xf0,0x40,0x00,0x00,0xf2,0x40,
    0x00,0x00,0xf4,0x40,0x00,0x00,0xf6,0x40,0x00,0x00,0xf8,0x40,0x00,0x00,0xfa,0x40,
    0x00,0x00,0xfc,0x40,0x00,0x00,0xfe,0x40,0x00,0x00,0x00,0x41,0x00,0x00,0x02,0x41,
    0x00,0x00,0x04,0x41,0x00,0x00,0x06,0x41,0x00,0x00,0x08,0x41,0x00,0x00,0x0a,0x41,
    0x00,0x00,0x0c,0x41,0x00,0x00,0x0e,0x41,0x00,0x00,0x10,0x41,0x00,0x00,0x12,0x41,
    0x00,0x00,0x14,0x41,0x00,0x00,0x16,0x41,0x00,0x00,0x18,0x41,0x00,0x00,0x1a,0x41,
    0x00,0x00,0x1c,0x41,0x00,0x00,0x1e,0x41,0x00,0x00,0x20,0x41,0x00,0x00,0x22,0x41,
    0x00,0x00,0x24,0x41,0x00,0x00,0x26,0x41,0x00,0x00,0x28,0x41,0x00,0x00,0x2a,0x41,
    0x00,0x00,0x2c,0x41,0x00,0x00,0x2e,0x41,0x00,0x00,0x30,0x41,0x00,0x00,0x32,0x41,
    0x00,0x00,0x34,0x41,0x00,0x00,0x36,0x41,0x00,0x00,0x38,0x41,0x00,0x00,0x3a,0x41,
    0x00,0x00,0x3c,0x41,0x00,0x00,0x3e,0x41,0x00,0x00,0x40,0x41,0x00,0x00,0x42,0x41,
    0x00,0x00,0x44,0x41,0x00,0x00,0x46,0x41,0x00,0x00,0x48,0x41,0x00,0x00,0x4a,0x41,
    0x00,0x00,0x4c,0x41,0x00,0x00,0x4e,0x41,0x00,0x00,0x50,0x41,0x00,0x00,0x52,0x41,
    0x00,0x00,0x54,0x41,0x00,0x00,0x56,0x41,0x00,0x00,0x58,0x41,0x00,0x00,0x5a,0x41,
    0x00,0x00,0x5c,0x41,0x00,0x00,0x5e,0x41,0x00,0x00,0x60,0x41,0x00,0x00,0x62,0x41,
    0x00,0x00,0x64,0x41,0x00,0x00,0x66,0x41,0x00,0x00,0x68,0x41,0x00,0x00,0x6a,0x41,
    0x00,0x00,0x6c,0x41,0x00,0x00,0x6e,0x41,0x00,0x00,0x70,0x41,0x00,0x00,0x72,0x41,
    0x00,0x00,0x74,0x41,0x00,0x00,0x76,0x41,0x00,0x00,0x78,0x41,0x00,0x00,0x7a,0x41,
    0x00,0x00,0x7c,0x41,0x00,0x00,0x7e,0x41,0x00,0x00,0x80,0x41,0x00,0x00,0x82,0x41,
    0x00,0x00,0x84,0x41,0x00,0x00,0x86,0x41,0x00,0x00,0x88,0x41,0x00,0x00,0x8a,0x41,
    0x00,0x00,0x8c,0x41,0x00,0x00,0x8e,0x41,0x00,0x00,0x90,0x41,0x00,0x00,0x92,0x41,
    0x00,0x00,0x94,0x41,0x00,0x00,0x96,0x41,0x00,0x00,0x98,0x41,0x00,0x00,0x9a,0x41,
    0x00,0x00,0x9c,0x41,0x00,0x00,0x9e,0x41,0x00,0x00,0xa0,0x41,0x00,0x00,0xa2,0x41,
    0x00,0x00,0xa4,0x41,0x00,0x00,0xa6,0x41,0x00,0x00,0xa8,0x41,0x00,0x00,0xaa,0x41,
    0x00,0x00,0xac,0x41,0x00,0x00,0xae,0x41,0x00,0x00,0xb0,0x41,0x00,0x00,0xb2,0x41,
    0x00,0x00,0xb4,0x41,0x00,0x00,0xb6,0x41,0x00,0x00,0xb8,0x41,0x00,0x00,0xba,0x41,
    0x00,0x00,0xbc,0x41,0x00,0x00,0xbe,0x41,0x00,0x00,0xc0,0x41,0x00,0x00,0xc2,0x41,
    0x00,0x00,0xc4,0x41,0x00,0x00,0xc6,0x41,0x00,0x00,0xc8,0x41,0x00,0x00,0xca,0x41,
    0x00,0x00,0xcc,0x41,0x00,0x00,0xce,0x41,0x00,0x00,0xd0,0x41,0x00,0x00,0xd2,0x41,
    0x00,0x00,0xd4,0x41,0x00,0x00,0xd6,0x41,0x00,0x00,0xd8,0x41,0x00,0x00,0xda,0x41,
    0x00,0x00,0xdc,0x41,0x00,0x00,0xde,0x41,0x00,0x00,0xe0,0x41,0x00,0x00,0xe2,0x41,
    0x00,0x00,0xe4,0x41,0x00,0x00,0xe6,0x41,0x00,0x00,0xe8,0x41,0x00,0x00,0xea,0x41,
    0x00,0x00,0xec,0x41,0x00,0x00,0xee,0x41,0x00,0x00,0xf0,0x41,0x00,0x00,0xf2,0x41,
    0x00,0x00,0xf4,0x41,0x00,0x00,0xf6,0x41,0x00,0x00,0xf8,0x41,0x00,0x00,0xfa,0x41,
    0x00,0x00,0xfc,0x41,0x00,0x00,0xfe,0x41,0x00,0x00,0x01,0x42,0x00,0x00,0x03,0x42,
    0x00,0x00,0x05,0x42,0x00,0x00,0x07,0x42,0x00,0x00,0x09,0x42,0x00,0x00,0x0b,0x42,
    0x00,0x00,0x0d,0x42,0x00,0x00,0x0f,0x42,0x00,0x00,0x11,0x42,0x00,0x00,0x13,0x42,
    0x00,0x00,0x15,0x42,0x00,0x00,0x17,0x42,0x00,0x00,0x19,0x42,0x00,0x00,0x1b,0x42,
    0x00,0x00,0x1d,0x42,0x00,0x00,0x1f,0x42,0x00,0x00,0x21,0x42,0x00,0x00,0x23,0x42,
    0x00,0x00,0x25,0x42,0x00,0x00,0x27,0x42,0x00,0x00,0x29,0x42,0x00,0x00,0x2b,0x42,
    0x00,0x00,0x2d,0x42,0x00,0x00,0x2f,0x42,0x00,0x00,0x31,0x42,0x00,0x00,0x33,0x42,
    0x00,0x00,0x35,0x42,0x00,0x00,0x37,0x42,0x00,0x00,0x39,0x42,0x00,0x00,0x3b,0x42,
    0x00,0x00,0x3d,0x42,0x00,0x00,0x3f,0x42,0x00,0x00,0x41,0x42,0x00,0x00,0x43,0x42,
    0x00,0x00,0x45,0x42,0x00,0x00,0x47,0x42,0x00,0x00,0x49,0x42,0x00,0x00,0x4b,0x42,
    0x00,0x00,0x4d,0x42,0x00,0x00,0x4f,0x42,0x00,0x00,0x51,0x42,0x00,0x00,0x53,0x42,
    0x00,0x00,0x55,0x42,0x00,0x00,0x57,0x42,0x00,0x00,0x59,0x42,0x00,0x00,0x5b,0x42,
    0x00,0x00,0x5d,0x42,0x00,0x00,0x5f,0x42,0x00,0x00,0x61,0x42,0x00,0x00,0x63,0x42,
    0x00,0x00,0x65,0x42,0x00,0x00,0x67,0x42,0x00,0x00,0x69,0x42,0x00,0x00,0x6b,0x42,
    0x00,0x00,0x6d,0x42,0x00,0x00,0x6f,0x42,0x00,0x00,0x71,0x42,0x00,0x00,0x73,0x42,
    0x00,0x00,0x75,0x42,0x00,0x00,0x77,0x42,0x00,0x00,0x79,0x42,0x00,0x00,0x7b,0x42,
    0x00,0x00,0x7d,0x42,0x00,0x00,0x7f,0x42,0x00,0x00,0x81,0x42,0x00,0x00,0x83,0x42,
    0x00,0x00,0x85,0x42,0x00,0x00,0x87,0x42,0x00,0x00,0x89,0x42,0x00,0x00,0x8b,0x42,
    0x00,0x00,0x8d,0x42,0x00,0x00,0x8f,0x42,0x00,0x00,0x91,0x42,0x00,0x00,0x93,0x42,
    0x00,0x00,0x95,0x42,0x00,0x00,0x97,0x42,0x00,0x00,0x99,0x42,0x00,0x00,0x9b,0x42,
    0x00,0x00,0x9d,0x42,0x00,0x00,0x9f,0x42,0x00,0x00,0xa1,0x42,0x00,0x00,0xa3,0x42,
    0x00,0x00,0xa5,0x42,0x00,0x00,0xa7,0x42,0x00,0x00,0xa9,0x42,0x00,0x00,0xab,0x42,
    0x00,0x00,0xad,0x42,0x00,0x00,0xaf,0x42,0x00,0x00,0xb1,0x42,0x00,0x00,0xb3,0x42,
    0x00,0x00,0xb5,0x42,0x00,0x00,0xb7,0x42,0x00,0x00,0xb9,0x42,0x00,0x00,0xbb,0x42,
    0x00,0x00,0xbd,0x42,0x00,0x00,0xbf,0x42,0x00,0x00,0xc1,0x42,0x00,0x00,0xc3,0x42,
    0x00,0x00,0xc5,0x42,0x00,0x00,0xc7,0x42,0x00,0x00,0xc9,0x42,0x00,0x00,0xcb,0x42,
    0x00,0x00,0xcd,0x42,0x00,0x00,0xcf,0x42,0x00,0x00,0xd1,0x42,0x00,0x00,0xd3,0x42,
    0x00,0x00,0xd5,0x42,0x00,0x00,0xd7,0x42,0x00,0x00,0xd9,0x42,0x00,0x00,0xdb,0x42,
    0x00,0x00,0xdd,0x42,0x00,0x00,0xdf,0x42,0x00,0x00,0xe1,0x42,0x00,0x00,0xe3,0x42,
    0x00,0x00,0xe5,0x42,0x00,0x00,0xe7,0x42,0x00,0x00,0xe9,0x42,0x00,0x00,0xeb,0x42,
    0x00,0x00,0xed,0x42,0x00,0x00,0xef,0x42,0x00,0x00,0xf1,0x42,0x00,0x00,0xf3,0x42,
    0x00,0x00,0xf5,0x42,0x00,0x00,0xf7,0x42,0x00,0x00,0xf9,0x42,0x00,0x00,0xfb,0x42,
    0x00,0x00,0xfd,0x42,0x00,0x00,0xff,0x42,0x00,0x00,0x01,0x43,0x00,0x00,0x03,0x43,
    0x00,0x00,0x05,0x43,0x00,0x00,0x07,0x43,0x00,0x00,0x09,0x43,0x00,0x00,0x0b,0x43,
    0x00,0x00,0x0d,0x43,0x00,0x00,0x0f,0x43,0x00,0x00,0x11,0x43,0x00,0x00,0x13,0x43,
    0x00,0x00,0x15,0x43,0x00,0x00,0x17,0x43,0x00,0x00,0x19,0x43,0x00,0x00,0x1b,0x43,
    0x00,0x00,0x1d,0x43,0x00,0x00,0x1f,0x43,0x00,0x00,0x21,0x43,0x00,0x00,0x23,0x43,
    0x00,0x00,0x25,0x43,0x00,0x00,0x27,0x43,0x00,0x00,0x29,0x43,0x00,0x00,0x2b,0x43,
    0x00,0x00,0x2d,0x43,0x00,0x00,0x2f,0x43,0x00,0x00,0x31,0x43,0x00,0x00,0x33,0x43,
    0x00,0x00,0x35,0x43,0x00,0x00,0x37,0x43,0x00,0x00,0x39,0x43,0x00,0x00,0x3b,0x43,
    0x00,0x00,0x3d,0x43,0x00,0x00,0x3f,0x43,0x00,0x00,0x41,0x43,0x00,0x00,0x43,0x43,
    0x00,0x00,0x45,0x43,0x00,0x00,0x47,0x43,0x00,0x00,0x49,0x43,0x00,0x00,0x4b,0x43,
    0x00,0x00,0x4d,0x43,0x00,0x00,0x4f,0x43,0x00,0x00,0x51,0x43,0x00,0x00,0x53,0x43,
    0x00,0x00,0x55,0x43,0x00,0x00,0x57,0x43,0x00,0x00,0x59,0x43,0x00,0x00,0x5b,0x43,
    0x00,0x00,0x5d,0x43,0x00,0x00,0x5f,0x43,0x00,0x00,0x61,0x43,0x00,0x00,0x63,0x43,
    0x00,0x00,0x65,0x43,0x00,0x00,0x67,0x43,0x00,0x00,0x69,0x43,0x00,0x00,0x6b,0x43,
    0x00,0x00,0x6d,0x43,0x00,0x00,0x6f,0x43,0x00,0x00,0x71,0x43,0x00,0x00,0x73,0x43,
    0x00,0x00,0x75,0x43,0x00,0x00,0x77,0x43,0x00,0x00,0x79,0x43,0x00,0x00,0x7b,0x43,
    0x00,0x00,0x7d,0x43,0x00,0x00,0x7f,0x43,0x00,0x00,0x81,0x43,0x00,0x00,0x83,0x43,
    0x00,0x00,0x85,0x43,0x00,0x00,0x87,0x43,0x00,0x00,0x89,0x43,0x00,0x00,0x8b,0x43,
    0x00,0x00,0x8d,0x43,0x00,0x00,0x8f,0x43,0x00,0x00,0x91,0x43,0x00,0x00,0x93,0x43,
    0x00,0x00,0x95,0x43,0x00,0x00,0x97,0x43,0x00,0x00,0x99,0x43,0x00,0x00,0x9b,0x43,
    0x00,0x00,0x9d,0x43,0x00,0x00,0x9f,0x43,0x00,0x00,0xa1,0x43,0x00,0x00,0xa3,0x43,
    0x00,0x00,0xa5,0x43,0x00,0x00,0xa7,0x43,0x00,0x00,0xa9,0x43,0x00,0x00,0xab,0x43,
    0x00,0x00,0xad,0x43,0x00,0x00,0xaf,0x43,0x00,0x00,0xb1,0x43,0x00,0x00,0xb3,0x43,
    0x00,0x00,0xb5,0x43,0x00,0x00,0xb7,0x43,0x00,0x00,0xb9,0x43,0x00,0x00,0xbb,0x43,
    0x00,0x00,0xbd,0x43,0x00,0x00,0xbf,0x43,0x00,0x00,0xc1,0x43,0x00,0x00,0xc3,0x43,
    0x00,0x00,0xc5,0x43,0x00,0x00,0xc7,0x43,0x00,0x00,0xc9,0x43,0x00,0x00,0xcb,0x43,
    0x00,0x00,0xcd,0x43,0x00,0x00,0xcf,0x43,0x00,0x00,0xd1,0x43,0x00,0x00,0xd3,0x43,
    0x00,0x00,0xd5,0x43,0x00,0x00,0xd7,0x43,0x00,0x00,0xd9,0x43,0x00,0x00,0xdb,0x43,
    0x00,0x00,0xdd,0x43,0x00,0x00,0xdf,0x43,0x00,0x00,0xe1,0x43,0x00,0x00,0xe3,0x43,
    0x00,0x00,0xe5,0x43,0x00,0x00,0xe7,0x43,0x00,0x00,0xe9,0x43,0x00,0x00,0xeb,0x43,
    0x00,0x00,0xed,0x43,0x00,0x00,0xef,0x43,0x00,0x00,0xf1,0x43,0x00,0x00,0xf3,0x43,
    0x00,0x00,0xf5,0x43,0x00,0x00,0xf7,0x43,0x00,0x00,0xf9,0x43,0x00,0x00,0xfb,0x43,
    0x00,0x00,0xfd,0x43,0x00,0x00,0xff,0x43,0x00,0x00,0x00,0x00,0x01,0x00,0x00,0x00,
    0x01,0x00,0x00,0x00,0x01,0x00,0x00,0x00,0x01,0x00,0x00,0x00,0x01,0x00,0x00,0x00,
    0x01,0x00,0x00,0x00,0x01,0x00,0x00,0x00,0x01,0x00,0x00,0x00,0x01,0x00,0x00,0x00,
    0x01,0x00,0x00,0x00,0x01,0x00,0x00,0x00,0x01,0x00,0x00,0x00,0x01,0x00,0x00,0x00,
    0x01,0x00,0x00,0x00,0x01,0x00,0x00,0x00,0x01,0x00,0x00,0x00,0x01,0x00,0x00,0x00,
    0x01,0x00,0x00,0x00,0x01,0x00,0x00,0x00,0x01,0x00,0x00,0x00,0x01,0x00,0x00,0x00,
    0x01,0x00,0x00,0x00,0x01,0x00,0x00,0x00,0x01,0x00,0x00,0x00,0x01,0x00,0x00,0x00,
    0x01,0x00,0x00,0x00,0x01,0x00,0x00,0x00,0x01,0x00,0x00,0x00,0x01,0x00,0x00,0x00,
    0x01,0x00,0x00,0x00,0x01,0x00,0x00,0x00,0x01,0x00,0x00,0x00,0x01,0x00,0x00,0x00,
    0x01,0x00,0x00,0x00,0x01,0x00,0x00,0x00,0x01,0x00,0x00,0x00,0x01,0x00,0x00,0x00,
    0x01,0x00,0x00,0x00,0x01,0x00,0x00,0x00,0x01,0x00,0x00,0x00,0x01,0x00,0x00,0x00,
